▁xxunk	0
▁xxpad	0
▁xxbos	0
▁xxeos	0
▁xxfld	0
▁xxrep	0
▁xxwrep	0
▁xxup	0
▁xxmaj	0
<unk>	0
▁the	-3.34897
.	-3.352
,	-3.47482
s	-3.63575
▁a	-3.89545
▁and	-4.0476
▁to	-4.06084
▁of	-4.0788
'	-4.13734
br	-4.34084
▁/>	-4.36055
<	-4.40686
▁is	-4.40845
▁I	-4.49456
▁in	-4.56352
▁it	-4.59162
▁that	-4.73453
▁this	-4.78596
t	-4.85168
▁was	-4.9863
▁movie	-5.01708
ing	-5.11536
-	-5.13606
▁	-5.15145
▁for	-5.2518
▁with	-5.2872
▁film	-5.35931
▁The	-5.37619
ed	-5.41876
▁but	-5.44155
▁on	-5.44218
▁be	-5.49902
▁have	-5.52153
▁"	-5.52239
▁as	-5.53743
▁you	-5.55562
▁not	-5.58916
▁(	-5.60486
▁are	-5.63666
ly	-5.66525
"	-5.76616
▁one	-5.79103
d	-5.81064
▁like	-5.87596
▁they	-5.87737
▁his	-5.88725
▁all	-5.91187
▁he	-5.92512
▁at	-5.93139
▁so	-5.97959
▁just	-6.00424
▁an	-6.01788
▁from	-6.04316
▁who	-6.04913
▁by	-6.05232
)	-6.05533
▁or	-6.06909
▁out	-6.06925
y	-6.07309
▁about	-6.09928
?	-6.17042
e	-6.18766
▁some	-6.22431
▁has	-6.2549
▁can	-6.30537
▁there	-6.31808
▁It	-6.32047
▁would	-6.3341
▁her	-6.33923
!	-6.33988
▁no	-6.34012
▁bad	-6.35612
n	-6.35759
▁good	-6.35955
▁up	-6.374
▁if	-6.3756
▁even	-6.38931
m	-6.39313
▁more	-6.42107
▁time	-6.42737
▁what	-6.44153
▁only	-6.44328
▁make	-6.45263
▁This	-6.46014
▁get	-6.46424
▁were	-6.46772
▁had	-6.49317
▁really	-6.49662
▁me	-6.5079
▁could	-6.52576
The	-6.5327
...	-6.54821
▁very	-6.54872
▁when	-6.6025
▁my	-6.62565
er	-6.63313
▁been	-6.63739
▁see	-6.64319
▁A	-6.65844
▁much	-6.65902
▁story	-6.66309
▁their	-6.66486
▁do	-6.66901
:	-6.67651
▁she	-6.67814
I	-6.68222
▁than	-6.68495
ve	-6.7199
a	-6.72637
re	-6.7394
▁into	-6.74478
▁which	-6.74752
▁people	-6.7894
▁made	-6.80854
▁don	-6.81502
▁we	-6.83507
▁-	-6.8403
▁other	-6.85209
▁because	-6.85492
▁any	-6.85935
▁plot	-6.87846
▁how	-6.88174
▁too	-6.89949
▁way	-6.93881
▁movies	-6.95562
▁them	-6.96885
▁acting	-6.97151
▁most	-6.9837
▁think	-7.00018
▁will	-7.00971
▁better	-7.02361
▁off	-7.02852
▁him	-7.02947
l	-7.03021
▁characters	-7.03131
▁seen	-7.03398
▁know	-7.03575
▁over	-7.03912
▁should	-7.04732
▁ever	-7.04776
▁character	-7.05888
▁did	-7.06004
▁watch	-7.06507
▁And	-7.07327
▁never	-7.07575
▁show	-7.08047
al	-7.08577
▁first	-7.1008
▁say	-7.11134
▁also	-7.11574
▁then	-7.12721
▁your	-7.12998
▁look	-7.13807
▁But	-7.14071
▁well	-7.15016
▁where	-7.15542
o	-7.18624
es	-7.18736
▁little	-7.20533
▁being	-7.21744
▁'	-7.22139
▁want	-7.2222
▁many	-7.22608
▁thing	-7.22981
).	-7.23754
▁didn	-7.24809
▁S	-7.24826
r	-7.24829
▁i	-7.25279
▁two	-7.25345
▁something	-7.2535
▁after	-7.25835
▁scenes	-7.26665
▁There	-7.2748
▁scene	-7.27977
▁films	-7.28147
;	-7.28187
▁<	-7.28403
in	-7.28533
▁end	-7.29524
▁go	-7.30279
▁If	-7.31662
▁He	-7.31715
ll	-7.32968
▁nothing	-7.33002
▁watching	-7.33521
▁In	-7.33898
or	-7.36535
/	-7.37304
▁does	-7.37341
S	-7.39308
▁actually	-7.39366
ting	-7.40306
▁doesn	-7.40907
▁these	-7.4091
▁back	-7.41058
▁actors	-7.41112
▁through	-7.41596
▁great	-7.4242
▁B	-7.42532
▁going	-7.43165
▁worst	-7.43655
▁minutes	-7.44348
▁man	-7.45256
▁part	-7.46874
A	-7.46922
p	-7.47191
c	-7.47386
▁such	-7.47577
▁find	-7.47866
),	-7.47929
▁life	-7.4817
▁real	-7.48534
▁why	-7.49123
▁funny	-7.50389
▁still	-7.51335
▁work	-7.52025
▁director	-7.52271
▁few	-7.53246
▁script	-7.534
▁before	-7.54226
▁lot	-7.54988
le	-7.55891
▁here	-7.55925
i	-7.5688
▁around	-7.57292
▁old	-7.57501
▁least	-7.57564
▁fact	-7.57828
▁pretty	-7.57906
▁best	-7.57931
▁love	-7.57976
▁down	-7.58279
▁those	-7.59971
▁guy	-7.60863
▁same	-7.62437
▁its	-7.6254
▁give	-7.63228
▁enough	-7.6351
▁seems	-7.64597
▁thought	-7.65637
▁another	-7.66733
▁while	-7.69112
▁whole	-7.70492
▁got	-7.70605
and	-7.70615
▁original	-7.7179
th	-7.72948
on	-7.73256
the	-7.73271
▁horror	-7.73782
▁isn	-7.74342
▁again	-7.74514
b	-7.74902
▁things	-7.74916
▁take	-7.75002
▁big	-7.75331
▁might	-7.75357
▁point	-7.75924
▁feel	-7.75984
▁years	-7.77017
▁C	-7.77334
▁every	-7.77436
se	-7.7745
▁They	-7.77487
▁interesting	-7.77598
▁stupid	-7.78192
▁money	-7.78238
▁P	-7.78299
▁though	-7.78344
▁un	-7.78987
▁must	-7.79113
▁anything	-7.80832
▁poor	-7.80883
▁long	-7.82851
▁hard	-7.83948
▁far	-7.84129
▁reason	-7.84252
T	-7.84593
&	-7.856
ic	-7.86085
▁right	-7.86128
▁now	-7.86195
▁awful	-7.86529
▁put	-7.86533
te	-7.86662
▁book	-7.87074
▁action	-7.8731
▁gets	-7.88051
▁am	-7.88129
▁quite	-7.88806
▁waste	-7.89006
▁kind	-7.89151
▁come	-7.89476
f	-7.89551
▁bit	-7.89735
an	-7.89812
ers	-7.89871
▁without	-7.89911
en	-7.89941
▁believe	-7.89949
C	-7.91
▁effects	-7.912
▁away	-7.91511
▁comedy	-7.9168
▁sure	-7.92121
▁2	-7.92232
▁What	-7.92772
▁boring	-7.93063
▁completely	-7.93227
▁trying	-7.93502
ion	-7.93731
▁done	-7.93768
▁You	-7.94062
▁cast	-7.94374
g	-7.94565
▁else	-7.95015
almost	-7.96024
▁saw	-7.96517
k	-7.96534
▁re	-7.96581
▁someone	-7.96621
it	-7.96993
▁name	-7.98119
▁anyone	-7.98753
▁making	-7.99129
▁looking	-7.99508
▁That	-8.0014
able	-8.00807
▁probably	-8.01141
▁goes	-8.01289
▁idea	-8.01664
".	-8.01673
▁world	-8.01676
▁seem	-8.01783
▁sense	-8.02182
▁girl	-8.02239
ar	-8.02636
D	-8.03556
▁tell	-8.03711
▁terrible	-8.03801
less	-8.04636
▁read	-8.04647
▁place	-8.04856
▁main	-8.05443
▁role	-8.06094
▁wasn	-8.06164
▁D	-8.06509
▁left	-8.07075
▁TV	-8.07159
--	-8.07968
▁screen	-8.08831
▁So	-8.09388
▁fun	-8.09676
▁found	-8.09927
▁10	-8.09964
▁No	-8.10377
▁worse	-8.10474
M	-8.1061
as	-8.10789
u	-8.10808
is	-8.11092
▁new	-8.11312
▁us	-8.11951
▁set	-8.11963
us	-8.12027
▁instead	-8.12275
▁times	-8.12365
R	-8.12523
(	-8.12689
ce	-8.13333
▁looks	-8.13369
▁own	-8.1337
▁always	-8.13475
▁let	-8.13496
",	-8.1398
▁camera	-8.1403
▁American	-8.14482
▁low	-8.15111
▁since	-8.15201
▁use	-8.15585
▁may	-8.15857
man	-8.16381
▁between	-8.16412
This	-8.16446
▁last	-8.16454
▁watched	-8.16522
▁actor	-8.16929
▁special	-8.17026
▁rather	-8.17029
▁budget	-8.17134
▁When	-8.1715
▁woman	-8.17653
el	-8.18793
▁everything	-8.18888
▁laugh	-8.18891
▁M	-8.18912
▁start	-8.19269
P	-8.19766
▁audience	-8.2002
▁music	-8.20712
▁shot	-8.20754
▁guess	-8.20787
▁either	-8.20811
▁sound	-8.21372
ri	-8.21733
▁She	-8.21979
▁T	-8.22225
▁hav	-8.22289
▁F	-8.22735
ur	-8.22906
It	-8.23179
w	-8.23189
▁As	-8.2325
▁wrong	-8.23382
▁need	-8.23597
▁ending	-8.23646
h	-8.23912
▁fan	-8.24035
▁Why	-8.24114
ness	-8.24312
▁horrible	-8.24696
▁try	-8.24843
▁comes	-8.25115
▁young	-8.25346
▁course	-8.25362
▁short	-8.25363
▁dialogue	-8.25366
▁DVD	-8.26723
▁rest	-8.26784
▁To	-8.27099
▁worth	-8.27129
▁half	-8.27409
▁line	-8.27926
▁K	-8.28345
▁day	-8.28352
▁said	-8.28767
▁under	-8.29536
▁head	-8.29546
▁high	-8.30346
▁seeing	-8.30521
▁remember	-8.30862
▁mean	-8.31278
▁once	-8.3141
▁guys	-8.31911
▁care	-8.32131
▁different	-8.32304
est	-8.32687
▁E	-8.32727
▁For	-8.32853
▁both	-8.32869
▁each	-8.33008
▁friends	-8.33498
ity	-8.33546
▁series	-8.33766
▁Not	-8.33836
▁kids	-8.3433
▁three	-8.3447
▁went	-8.34515
▁absolutely	-8.34527
▁job	-8.34704
st	-8.34993
▁sort	-8.35204
▁everyone	-8.35229
to	-8.35605
▁person	-8.35879
▁3	-8.3589
▁case	-8.35936
▁women	-8.35947
▁production	-8.3597
ra	-8.36217
▁Well	-8.36533
▁used	-8.36879
▁play	-8.37401
▁yet	-8.37467
▁video	-8.3748
B	-8.3752
▁nice	-8.37825
▁simply	-8.38191
▁version	-8.38194
▁our	-8.38305
▁flick	-8.38623
▁supposed	-8.38717
▁played	-8.38732
▁sex	-8.38743
ie	-8.38912
▁together	-8.38955
▁run	-8.3915
▁doing	-8.39264
▁ridiculous	-8.39724
N	-8.39728
▁crap	-8.40026
▁piece	-8.40213
▁next	-8.40499
▁fall	-8.40505
▁b	-8.40602
▁kill	-8.40877
▁plays	-8.40901
▁dur	-8.40968
▁however	-8.4133
▁lack	-8.41976
▁THE	-8.42379
▁We	-8.42855
▁men	-8.43329
ies	-8.4333
▁seemed	-8.43539
▁full	-8.4364
▁All	-8.4421
▁sit	-8.44233
▁wife	-8.44503
▁night	-8.44569
▁help	-8.44756
▁killed	-8.44931
▁performance	-8.45092
▁cheap	-8.45281
▁family	-8.45288
▁turn	-8.45497
▁entire	-8.45749
▁shows	-8.45809
ous	-8.45829
▁ga	-8.461
▁black	-8.46138
▁school	-8.4617
▁However	-8.46198
E	-8.46619
▁keep	-8.4676
▁Hollywood	-8.46954
▁attempt	-8.47009
at	-8.47453
▁O	-8.47464
ation	-8.47478
▁small	-8.4776
▁usual	-8.47767
▁quality	-8.47773
▁felt	-8.47773
▁mind	-8.4782
▁came	-8.47903
▁One	-8.48189
ther	-8.48321
▁recommend	-8.4897
▁given	-8.49005
▁takes	-8.49018
▁John	-8.49505
▁especially	-8.4953
▁house	-8.49585
▁understand	-8.49648
▁star	-8.49702
▁My	-8.50007
▁R	-8.50042
▁problem	-8.50242
▁himself	-8.50303
▁home	-8.50303
▁year	-8.5037
ish	-8.50664
ne	-8.50998
▁wanted	-8.51049
▁example	-8.51059
▁second	-8.51131
▁tries	-8.51172
▁lead	-8.51752
▁Don	-8.5176
▁save	-8.51765
▁couple	-8.52035
up	-8.52149
▁town	-8.52253
▁along	-8.52348
▁death	-8.52845
▁itself	-8.52912
▁true	-8.52936
am	-8.53122
▁playing	-8.53619
▁already	-8.53797
▁etc	-8.53797
▁	-8.538
▁On	-8.54059
ch	-8.54683
▁H	-8.54738
▁enjoy	-8.55097
▁de	-8.55175
▁close	-8.55209
▁lines	-8.55444
▁near	-8.5559
ro	-8.55767
one	-8.55962
▁dead	-8.56621
▁p	-8.56651
▁side	-8.56884
▁war	-8.57215
▁less	-8.5744
▁After	-8.57495
▁W	-8.58071
▁face	-8.58264
▁monster	-8.58484
▁car	-8.59085
ist	-8.59243
▁maybe	-8.59357
▁Then	-8.599
▁decent	-8.60249
▁direction	-8.60252
▁written	-8.60268
K	-8.6031
In	-8.60723
▁slow	-8.60851
▁writing	-8.61187
▁classic	-8.61215
la	-8.61426
▁called	-8.61645
▁c	-8.62189
▁4	-8.62356
ter	-8.62431
▁writer	-8.62473
▁unti	-8.62616
▁father	-8.63151
▁wonder	-8.63343
▁friend	-8.63408
▁mess	-8.6368
If	-8.63765
▁Even	-8.64164
Y	-8.64215
▁G	-8.64432
L	-8.64533
▁stuff	-8.65081
▁pick	-8.65121
▁annoying	-8.6514
▁matter	-8.65411
▁L	-8.65627
▁myself	-8.66076
▁stop	-8.66078
▁How	-8.66162
▁drama	-8.67064
▁God	-8.67069
tally	-8.67082
▁5	-8.67113
▁complete	-8.6748
z	-8.67533
▁manage	-8.68062
▁beginning	-8.6811
▁won	-8.68141
▁1	-8.68556
▁At	-8.6903
▁act	-8.69109
G	-8.69122
▁dialog	-8.69132
▁silly	-8.69138
ian	-8.69282
▁obvious	-8.69831
O	-8.70034
▁humor	-8.70162
▁picture	-8.70195
ir	-8.7049
▁title	-8.7066
▁hour	-8.70734
▁fans	-8.71211
▁mother	-8.7124
▁stay	-8.71291
▁Also	-8.71334
▁thinking	-8.71412
ant	-8.71469
▁top	-8.71867
▁local	-8.72298
▁female	-8.72311
!!!	-8.72618
▁meet	-8.72917
▁group	-8.73371
▁son	-8.73674
▁obviously	-8.73732
▁sever	-8.73802
▁extreme	-8.74458
▁predictable	-8.74464
▁call	-8.74632
id	-8.74951
▁fight	-8.75114
ive	-8.75299
ty	-8.75405
▁dull	-8.7557
▁fair	-8.75578
▁cool	-8.75596
▁later	-8.75621
▁hand	-8.75836
na	-8.75845
▁killer	-8.76377
▁stars	-8.764
▁poorly	-8.76458
▁entertaining	-8.76753
▁against	-8.76792
▁happens	-8.76891
▁talent	-8.769
et	-8.77109
▁game	-8.77371
▁episode	-8.77392
ton	-8.77599
▁co	-8.77672
▁themselves	-8.77792
▁bunch	-8.77792
F	-8.7782
▁becomes	-8.78114
▁--	-8.78261
▁live	-8.78431
▁often	-8.78572
ha	-8.78577
▁cinema	-8.78916
▁cover	-8.78939
▁weak	-8.78966
▁disappointed	-8.78972
ke	-8.79082
ge	-8.79117
▁become	-8.79817
▁boy	-8.79912
3	-8.80021
▁hell	-8.80077
▁pay	-8.80079
ent	-8.80177
▁expect	-8.80202
il	-8.80366
There	-8.80639
▁hours	-8.80658
lo	-8.81082
▁wish	-8.81163
▁beautiful	-8.81241
▁genre	-8.8128
▁white	-8.81295
▁OK	-8.81356
▁talk	-8.81473
▁took	-8.81479
!!	-8.81919
▁mention	-8.81976
▁started	-8.82092
un	-8.82172
fi	-8.82211
▁N	-8.82416
▁children	-8.82417
▁sad	-8.82455
ry	-8.82462
▁fails	-8.83017
▁hate	-8.83471
▁happen	-8.8351
▁hero	-8.83538
▁except	-8.83566
▁spend	-8.83625
▁turns	-8.83867
▁wouldn	-8.84514
▁Man	-8.84546
▁sequel	-8.84558
!)	-8.84667
▁Just	-8.84928
▁cut	-8.84941
▁order	-8.84976
lthough	-8.85277
▁words	-8.85455
▁blood	-8.85815
ck	-8.85908
▁spent	-8.86038
▁daughter	-8.86049
▁early	-8.86082
▁Of	-8.86389
▁final	-8.86701
but	-8.86878
▁dark	-8.87263
▁truly	-8.87266
▁tried	-8.87271
▁Oh	-8.87489
▁review	-8.87533
sh	-8.87858
▁parts	-8.87996
be	-8.88159
▁decide	-8.88276
▁viewer	-8.88476
▁lost	-8.88539
▁talking	-8.89167
▁move	-8.89438
son	-8.89528
▁saying	-8.89569
▁jokes	-8.89595
▁girls	-8.89725
▁rating	-8.89773
▁huge	-8.89785
▁First	-8.89897
▁bring	-8.90125
."	-8.90167
▁gore	-8.90367
And	-8.90763
1	-8.90776
▁hit	-8.90902
▁involved	-8.91163
▁Mr	-8.91274
▁Now	-8.91296
▁interest	-8.91316
▁figure	-8.91396
▁f	-8.91495
▁hope	-8.91967
▁moments	-8.92137
▁dumb	-8.92196
out	-8.92239
▁self	-8.92345
▁human	-8.92381
▁fine	-8.92387
taking	-8.92456
▁across	-8.92514
▁finally	-8.92732
▁happened	-8.92851
no	-8.93085
ling	-8.93451
▁pathetic	-8.93701
▁team	-8.93704
▁20	-8.93799
W	-8.94282
▁Ed	-8.94783
▁footage	-8.95015
▁average	-8.95047
▁evil	-8.9508
▁Whi	-8.95114
▁cannot	-8.95168
▁follow	-8.95307
▁De	-8.95319
▁st	-8.95397
ma	-8.95469
ine	-8.95591
▁pre	-8.95771
ul	-8.96096
▁actress	-8.96286
▁result	-8.96363
▁violence	-8.96363
▁behind	-8.96363
▁voice	-8.96364
▁effort	-8.96365
▁space	-8.96399
▁throughout	-8.96426
king	-8.96431
▁total	-8.97344
▁liked	-8.97503
▁running	-8.97743
if	-8.97789
▁room	-8.97875
▁shots	-8.97901
▁h	-8.97901
▁Some	-8.97923
▁able	-8.97945
age	-8.98132
he	-8.98407
▁ex	-8.98447
▁heart	-8.98541
▁others	-8.98805
▁serious	-8.98817
▁novel	-8.99133
▁possible	-8.99154
▁With	-8.9918
▁Michael	-8.992
▁scary	-8.99249
▁style	-8.9929
▁coming	-8.99316
▁His	-8.99464
▁wasted	-8.99465
▁turned	-8.99887
9	-9.00298
▁strange	-9.00388
▁write	-9.0049
ary	-9.00513
▁major	-9.0053
▁kept	-9.00531
▁late	-9.00563
▁hold	-9.00683
x	-9.00749
▁joke	-9.00778
▁Do	-9.00787
▁type	-9.00787
like	-9.00914
▁walk	-9.01347
▁break	-9.01509
▁IMDb	-9.01959
▁documentary	-9.0196
▁message	-9.01991
▁check	-9.02014
▁exactly	-9.02037
▁Maybe	-9.02102
▁moment	-9.02204
▁kid	-9.02217
▁directed	-9.02229
▁art	-9.02336
▁soon	-9.02894
▁Re	-9.02968
▁yourself	-9.03408
▁pull	-9.03408
ally	-9.03419
*	-9.03432
▁Or	-9.03479
2	-9.03483
ment	-9.03553
▁seriously	-9.03774
▁heard	-9.03803
▁appears	-9.04036
▁gun	-9.04081
um	-9.04205
▁age	-9.04352
ate	-9.04398
▁cheesy	-9.04879
▁subject	-9.04879
▁knew	-9.04879
▁body	-9.04884
▁editing	-9.04956
▁certainly	-9.05136
▁career	-9.05277
▁non	-9.05723
ism	-9.06174
im	-9.06275
!"	-9.06301
yond	-9.06363
▁English	-9.06402
▁box	-9.06433
▁Van	-9.06472
▁Robert	-9.0679
▁opening	-9.06958
ted	-9.07234
which	-9.07306
▁nor	-9.07481
▁opinion	-9.07886
▁doubt	-9.07887
▁weird	-9.07887
▁New	-9.07895
▁hair	-9.07899
▁NOT	-9.07909
▁sub	-9.07933
▁problems	-9.07996
▁change	-9.08079
▁leave	-9.08304
▁none	-9.0842
▁ago	-9.0848
▁avoid	-9.08538
▁experience	-9.09123
▁light	-9.09152
ful	-9.09209
▁Instead	-9.09481
▁Dr	-9.09486
▁past	-9.09673
▁wear	-9.0983
▁ten	-9.09876
▁d	-9.09896
▁Ma	-9.09917
▁open	-9.0992
▁lame	-9.10042
tic	-9.10134
▁J	-9.10263
▁cop	-9.10414
▁add	-9.10525
▁feeling	-9.10584
▁whe	-9.10672
▁sometimes	-9.10991
▁redeem	-9.11041
▁sci	-9.11099
▁starts	-9.11302
▁decided	-9.11392
▁V	-9.11487
▁die	-9.11814
What	-9.11994
▁needed	-9.12063
But	-9.1208
not	-9.12248
▁bother	-9.12523
▁French	-9.12575
▁cinematography	-9.12575
▁score	-9.12582
▁child	-9.12595
ley	-9.12743
So	-9.13088
▁days	-9.1391
▁shown	-9.13915
so	-9.14187
▁material	-9.14188
▁trash	-9.14191
▁alone	-9.14193
▁girlfriend	-9.14202
▁single	-9.14218
▁storyline	-9.14304
▁apparently	-9.14353
▁reviews	-9.14374
▁released	-9.14481
▁Mo	-9.14501
▁says	-9.1462
▁rent	-9.14816
ever	-9.14861
▁badly	-9.14959
▁clear	-9.15524
▁post	-9.15543
ig	-9.15606
....	-9.15796
▁premise	-9.15827
▁history	-9.15828
▁stories	-9.1587
▁told	-9.15879
▁thriller	-9.15953
ia	-9.1606
▁con	-9.16389
▁begin	-9.16491
▁taken	-9.16535
5	-9.16841
▁speak	-9.16873
▁m	-9.17076
▁release	-9.17216
▁admit	-9.17491
▁attention	-9.17494
▁bigge	-9.17565
▁quickly	-9.17608
ad	-9.17805
▁performances	-9.1789
▁...	-9.1798
▁enjoyed	-9.1833
▁feature	-9.18601
▁four	-9.19154
▁excellent	-9.19188
▁Unfortunately	-9.19324
▁particularly	-9.19471
▁t	-9.19596
for	-9.19618
ner	-9.1976
▁word	-9.20063
go	-9.20172
▁buy	-9.20353
nt	-9.20631
V	-9.20772
▁hot	-9.2089
▁chance	-9.20917
ut	-9.20924
▁crew	-9.20924
▁murder	-9.20926
▁based	-9.21056
▁unless	-9.21144
▁clearly	-9.21282
▁eyes	-9.21342
▁lives	-9.21477
pe	-9.22095
oo	-9.22134
▁front	-9.22577
▁potential	-9.22667
▁imagine	-9.22682
▁class	-9.22711
▁basically	-9.22712
▁perhaps	-9.22724
▁David	-9.22744
▁reading	-9.22874
▁Be	-9.23073
▁parents	-9.23076
▁War	-9.23113
▁due	-9.23132
ho	-9.23381
▁shoot	-9.23841
▁important	-9.24137
As	-9.24412
	-9.24453
▁excuse	-9.24453
▁husband	-9.24479
▁anyway	-9.24516
▁water	-9.24537
▁somewhat	-9.24556
▁bored	-9.24561
▁Jack	-9.24594
▁pointless	-9.24595
▁Most	-9.24602
▁Yes	-9.24658
line	-9.24846
ated	-9.24901
der	-9.25011
mo	-9.25031
4	-9.25061
▁aren	-9.25115
▁view	-9.25168
▁sequences	-9.25171
▁upon	-9.25235
▁brother	-9.25417
▁credit	-9.25492
J	-9.25556
▁wait	-9.25667
▁dis	-9.25874
v	-9.25885
ag	-9.25887
ure	-9.26005
▁straight	-9.2627
▁simple	-9.26271
▁large	-9.26272
giving	-9.26273
▁favorite	-9.26274
▁entertainment	-9.2629
movie	-9.26687
▁dog	-9.26746
▁appear	-9.26864
▁power	-9.27203
▁level	-9.27277
▁theater	-9.27281
mp	-9.2788
who	-9.2797
▁fire	-9.28005
▁famous	-9.28123
▁purpose	-9.28123
▁store	-9.28124
▁stick	-9.28134
▁e	-9.28152
▁please	-9.28161
▁overall	-9.28201
▁An	-9.28223
▁sorry	-9.28263
▁Go	-9.28496
▁camp	-9.28914
▁sets	-9.29083
▁hear	-9.29189
▁villain	-9.29228
▁sequence	-9.29256
▁minute	-9.29368
▁comment	-9.29512
▁learn	-9.29551
ud	-9.29642
▁actual	-9.29669
land	-9.29789
▁living	-9.30011
▁country	-9.30017
▁suspense	-9.3007
▁somehow	-9.30084
▁happy	-9.30096
▁Who	-9.30109
My	-9.30173
▁forced	-9.30193
▁ship	-9.30333
▁6	-9.30378
▁stand	-9.3058
ster	-9.30699
co	-9.30716
▁pass	-9.30731
ance	-9.31025
▁Bo	-9.31026
▁cause	-9.31035
▁project	-9.31112
▁jump	-9.31338
▁flat	-9.31416
▁roles	-9.31498
▁working	-9.31711
▁Ra	-9.31784
▁Indian	-9.31857
▁count	-9.31866
▁ask	-9.31896
▁police	-9.31905
▁bizarre	-9.31933
▁positive	-9.31933
▁attack	-9.31934
os	-9.3194
▁believable	-9.31954
▁support	-9.31961
▁James	-9.31984
▁definitely	-9.31993
▁Wood	-9.32022
▁painful	-9.32167
▁offer	-9.32282
▁gives	-9.32543
▁killing	-9.32635
▁explain	-9.32803
▁crime	-9.3313
H	-9.33174
ni	-9.33176
▁number	-9.33181
▁alien	-9.33187
▁value	-9.33195
ble	-9.33432
▁song	-9.3351
▁super	-9.33518
?)	-9.33608
▁mostly	-9.33677
▁Fro	-9.33868
▁television	-9.33894
▁middle	-9.33895
▁deep	-9.33914
▁battle	-9.33962
▁brain	-9.3397
▁works	-9.34194
▁U	-9.34331
ably	-9.34549
▁*	-9.34666
0	-9.34695
U	-9.34725
ta	-9.34897
")	-9.35023
▁rate	-9.35128
▁today	-9.35256
▁question	-9.35259
io	-9.35467
▁certain	-9.35544
▁despi	-9.35578
▁suppose	-9.35592
▁known	-9.35712
▁sh	-9.35749
▁agree	-9.35818
▁trouble	-9.35893
▁common	-9.35893
▁cartoon	-9.35894
▁disappointment	-9.35896
▁amount	-9.35947
▁Nothing	-9.35948
▁five	-9.35978
▁strong	-9.35984
▁plain	-9.35994
▁land	-9.36628
▁comments	-9.36692
▁Un	-9.36736
do	-9.36765
▁credits	-9.36812
▁Let	-9.37104
▁previous	-9.37578
▁list	-9.37631
▁similar	-9.3793
▁garbage	-9.37934
▁describe	-9.37935
▁haven	-9.37943
▁okay	-9.37989
▁barely	-9.38026
7	-9.38575
▁expected	-9.38735
▁hop	-9.38767
em	-9.39041
▁ma	-9.39054
▁accent	-9.39413
▁situation	-9.39445
▁build	-9.39452
well	-9.39476
of	-9.3957
▁present	-9.39595
▁perfect	-9.39649
▁British	-9.40018
▁among	-9.40041
▁needs	-9.40049
▁Like	-9.40072
▁forward	-9.40316
▁ends	-9.40489
▁building	-9.4063
die	-9.40841
ick	-9.40884
▁acted	-9.41075
▁elements	-9.4114
▁Al	-9.41142
▁twist	-9.41188
▁door	-9.41518
▁ended	-9.41593
that	-9.41692
▁showing	-9.41997
▁suggest	-9.42145
▁typical	-9.42145
▁easy	-9.42145
▁mix	-9.4215
▁hilarious	-9.42177
▁modern	-9.4219
▁nowhere	-9.42217
▁using	-9.42249
▁reality	-9.42359
all	-9.42545
▁events	-9.42576
ap	-9.42619
▁remind	-9.4278
▁hands	-9.42989
▁toward	-9.43004
▁expecting	-9.43281
▁ha	-9.43731
▁writers	-9.43731
dy	-9.43848
▁Tom	-9.44023
▁realize	-9.44123
this	-9.44283
▁difficult	-9.44319
▁nudity	-9.44319
▁above	-9.44321
▁vote	-9.44325
▁forget	-9.44327
▁eye	-9.44328
▁create	-9.44349
▁OF	-9.4436
▁leads	-9.44368
▁Scott	-9.44377
▁rock	-9.44388
▁fish	-9.44389
▁laughable	-9.44437
time	-9.44474
▁90	-9.44541
▁7	-9.44563
ug	-9.44705
▁anti	-9.44802
▁songs	-9.45083
ER	-9.45241
▁mentioned	-9.45335
▁po	-9.4535
ier	-9.45383
ng	-9.45459
ow	-9.45628
▁rip	-9.45662
▁comic	-9.46065
▁respect	-9.46075
▁background	-9.46541
▁disaster	-9.46541
▁paid	-9.46541
▁odd	-9.46542
▁CGI	-9.46554
▁male	-9.46665
▁viewers	-9.46823
▁theme	-9.46951
▁missing	-9.46977
▁Ha	-9.47012
om	-9.47204
▁deal	-9.4738
▁La	-9.47903
▁di	-9.47954
▁discover	-9.48128
per	-9.48152
ang	-9.48255
▁amazing	-9.48455
▁form	-9.48598
▁incredibl	-9.48604
▁possib	-9.48759
▁prison	-9.48773
▁college	-9.48814
▁soundtrack	-9.48814
▁future	-9.48815
▁fast	-9.4882
▁screenplay	-9.48825
▁gang	-9.48834
▁mood	-9.48838
▁Italian	-9.48849
▁Perhaps	-9.48862
▁bomb	-9.48886
▁George	-9.48888
▁Richard	-9.4889
hi	-9.48966
▁r	-9.48993
▁Bad	-9.49064
▁9	-9.49119
▁drive	-9.4919
▁attempts	-9.49232
▁interested	-9.49614
came	-9.49634
▁pro	-9.497
▁inside	-9.49756
▁filmmakers	-9.4998
▁Le	-9.50291
▁means	-9.50504
▁free	-9.50612
▁sc	-9.50702
▁By	-9.50774
▁effect	-9.50844
▁sick	-9.51127
▁regard	-9.5114
▁control	-9.5114
▁serve	-9.5114
▁wooden	-9.5114
▁70	-9.51149
volving	-9.51159
▁slasher	-9.51164
▁fake	-9.51175
▁former	-9.51293
▁win	-9.5144
▁holes	-9.5202
▁points	-9.52212
nd	-9.52325
▁fighting	-9.52449
▁deliver	-9.52519
▁throw	-9.52804
▁80	-9.52847
▁hardly	-9.5302
vi	-9.53304
▁suit	-9.53319
ING	-9.53465
▁mediocre	-9.53521
▁wrote	-9.53521
▁neither	-9.53521
▁dress	-9.53576
▁military	-9.53585
▁30	-9.53673
▁successful	-9.53717
▁cat	-9.53751
▁whatever	-9.53759
▁setting	-9.53794
ice	-9.5401
▁fit	-9.54047
▁fill	-9.54071
▁beat	-9.54083
off	-9.54095
▁meant	-9.54133
ol	-9.54289
▁provide	-9.54309
▁Her	-9.54482
▁Here	-9.54936
da	-9.55047
▁leaves	-9.55288
▁escape	-9.55391
▁America	-9.55705
▁laughing	-9.55885
▁basic	-9.55948
▁smart	-9.5596
▁computer	-9.5596
▁bought	-9.55972
▁la	-9.56019
▁concept	-9.56031
▁produced	-9.56047
▁trip	-9.56136
▁god	-9.56375
▁knows	-9.56468
op	-9.56493
▁lo	-9.56517
▁directing	-9.56584
8	-9.56595
ard	-9.56893
ay	-9.57201
▁direct	-9.57285
▁drug	-9.57318
top	-9.57345
▁Car	-9.57477
▁plan	-9.57692
etic	-9.57831
with	-9.57887
▁pace	-9.5808
▁honest	-9.58107
▁particular	-9.5811
▁fl	-9.58136
▁creature	-9.58289
▁reasons	-9.58314
ill	-9.5844
▁secret	-9.58446
▁desert	-9.58461
▁ground	-9.58463
▁various	-9.58466
▁remake	-9.58472
▁development	-9.58473
▁romantic	-9.58482
▁third	-9.58497
▁notice	-9.58547
▁send	-9.5856
▁disappointing	-9.58592
▁thrown	-9.58643
▁failed	-9.58678
▁taste	-9.58681
▁bar	-9.58716
▁surprised	-9.58733
▁oh	-9.58741
▁considered	-9.58903
light	-9.58931
me	-9.59095
que	-9.59104
▁15	-9.59125
▁gay	-9.59186
ga	-9.59231
mar	-9.59316
▁Lee	-9.59419
day	-9.59422
og	-9.59458
ach	-9.59659
▁Co	-9.59702
▁torture	-9.59703
▁touch	-9.59903
▁consider	-9.59926
▁producers	-9.60096
some	-9.60451
▁general	-9.6067
?"	-9.6073
▁sign	-9.60734
▁German	-9.60787
You	-9.60792
uff	-9.60881
▁relationship	-9.60917
▁victim	-9.6096
▁cross	-9.61024
▁earlier	-9.61024
▁herself	-9.61024
▁period	-9.61024
▁political	-9.61024
▁Japanese	-9.61024
▁tale	-9.61025
▁memorable	-9.61025
▁appreciate	-9.61026
▁train	-9.61026
▁adaptation	-9.6103
▁yes	-9.61041
▁agent	-9.61047
▁porn	-9.61049
nna	-9.61058
▁rich	-9.61095
▁moving	-9.61098
▁slightly	-9.61129
▁Watch	-9.61193
▁gone	-9.61253
▁equal	-9.61342
▁musical	-9.61372
▁copy	-9.61409
▁cute	-9.61626
▁sadly	-9.61797
ten	-9.62087
▁fr	-9.62229
red	-9.62254
▁Me	-9.62266
▁g	-9.62306
you	-9.62392
▁features	-9.62531
▁island	-9.62707
art	-9.62878
▁cr	-9.62896
▁grow	-9.62916
▁party	-9.63018
▁insult	-9.63028
ence	-9.63055
▁includ	-9.63119
▁50	-9.63131
side	-9.63266
nother	-9.63332
▁sexual	-9.63424
▁King	-9.63452
▁filmed	-9.63527
▁drag	-9.63623
▁clever	-9.63627
▁Christian	-9.63633
▁industry	-9.63655
▁clothes	-9.63656
▁crazy	-9.63656
▁pure	-9.63685
▁otherwise	-9.63691
▁apart	-9.63715
▁perform	-9.6372
▁crappy	-9.63727
▁earth	-9.6374
▁NO	-9.63827
rew	-9.64251
▁rented	-9.64391
j	-9.64458
▁sp	-9.64571
ade	-9.64649
▁died	-9.64687
rought	-9.65112
▁wondering	-9.65332
ba	-9.65665
▁shame	-9.65808
ns	-9.65814
▁mis	-9.65896
▁visual	-9.65995
▁state	-9.66051
For	-9.66178
rs	-9.66245
▁loved	-9.66249
▁within	-9.66354
▁company	-9.66358
▁plenty	-9.66358
▁scientist	-9.66358
▁giant	-9.66358
▁Moore	-9.66358
▁shallow	-9.66359
▁amusing	-9.66359
▁personal	-9.6636
▁sister	-9.6636
▁random	-9.66361
▁absurd	-9.66383
▁catch	-9.66443
▁fell	-9.66466
▁Star	-9.66553
▁compared	-9.66578
▁Too	-9.66728
▁wonderful	-9.66753
▁lacks	-9.67319
par	-9.67334
my	-9.67345
▁shooting	-9.67352
ab	-9.6739
▁soldiers	-9.67523
▁walking	-9.67533
▁members	-9.67957
old	-9.68031
▁plane	-9.68074
uit	-9.68166
▁appeal	-9.685
een	-9.68506
▁sleep	-9.6852
▁air	-9.68652
▁8	-9.68932
▁cliché	-9.68975
▁surprise	-9.6898
▁mistake	-9.69011
▁remote	-9.69136
▁Seagal	-9.69136
▁turkey	-9.69136
▁whatsoever	-9.69136
▁western	-9.69137
▁conclusion	-9.69137
▁rubbish	-9.69141
▁further	-9.69141
▁atmosphere	-9.69145
▁fear	-9.69152
▁unbelievable	-9.69153
▁portrayal	-9.69184
▁Peter	-9.69211
▁th	-9.69231
▁easily	-9.6924
▁constantly	-9.6926
▁display	-9.6932
▁sounds	-9.69389
To	-9.69475
▁folks	-9.69483
▁Mary	-9.69511
▁created	-9.697
▁sing	-9.69703
▁added	-9.69947
ite	-9.69953
ned	-9.70251
▁Di	-9.7026
tal	-9.70396
?!	-9.70557
uch	-9.71004
▁Jo	-9.71188
▁books	-9.71558
ank	-9.71738
▁chase	-9.71844
▁channel	-9.71993
▁travel	-9.71993
▁truth	-9.71993
▁Earth	-9.71993
▁interview	-9.71995
▁impression	-9.72002
▁MST	-9.72011
▁charge	-9.72057
▁normal	-9.72057
▁unfortunately	-9.721
▁sucked	-9.7231
▁Where	-9.72374
▁Although	-9.72523
▁ra	-9.7286
▁realistic	-9.72888
▁waiting	-9.72968
▁episodes	-9.73027
▁happening	-9.7348
▁Tr	-9.73517
▁sat	-9.73521
▁12	-9.74059
???	-9.74313
▁exist	-9.74397
▁Li	-9.74618
▁Da	-9.74631
▁Steve	-9.74766
▁stage	-9.74767
6	-9.74809
▁dance	-9.74841
▁brilliant	-9.74934
▁answer	-9.74934
▁horse	-9.74934
▁lousy	-9.74934
▁ugly	-9.74937
▁animation	-9.74937
▁impossible	-9.7494
▁glad	-9.74941
▁match	-9.74941
▁Jim	-9.74957
▁Dead	-9.74958
▁immediately	-9.74971
▁mere	-9.74993
▁tired	-9.75008
▁enjoyable	-9.75046
We	-9.75168
▁extra	-9.75262
▁Joe	-9.75324
▁sl	-9.75496
ating	-9.75507
▁younger	-9.75531
▁considering	-9.75646
way	-9.75706
ber	-9.75758
ily	-9.75783
▁viewing	-9.75943
by	-9.76159
▁costumes	-9.76206
▁William	-9.76235
ca	-9.76367
▁highly	-9.76436
▁18	-9.76507
▁bi	-9.76572
▁bed	-9.76718
ah	-9.76747
▁sucks	-9.76884
ial	-9.77035
ny	-9.77074
ker	-9.77118
lin	-9.77143
▁Mar	-9.77151
▁per	-9.77341
When	-9.77383
even	-9.774
▁emotional	-9.77688
aw	-9.77853
▁ideas	-9.77917
▁mine	-9.77947
▁cult	-9.77955
▁century	-9.77964
▁confusing	-9.77964
▁embarrassing	-9.77964
▁explanation	-9.77964
▁violent	-9.77964
▁Great	-9.77964
▁depth	-9.77964
▁York	-9.77965
▁leaving	-9.77966
▁nature	-9.77966
▁baby	-9.77968
▁lady	-9.77975
▁saving	-9.77977
▁public	-9.78003
▁climax	-9.78028
▁Everything	-9.78047
▁prove	-9.78049
▁Charles	-9.78062
▁deserve	-9.78066
▁confused	-9.78073
▁rare	-9.78088
▁Che	-9.78114
▁demon	-9.78135
▁motion	-9.78143
▁US	-9.78242
▁vampire	-9.78365
▁watchable	-9.78474
▁laughs	-9.78633
▁changed	-9.78765
▁boys	-9.78901
▁questions	-9.78965
cal	-9.79022
▁require	-9.79066
ack	-9.79289
▁entirely	-9.79291
Not	-9.79373
▁ways	-9.79411
min	-9.79455
▁shock	-9.80017
▁reviewer	-9.80065
led	-9.80228
▁changes	-9.8029
ub	-9.80347
ron	-9.80491
▁ride	-9.80545
▁finish	-9.80635
▁recent	-9.80761
▁sa	-9.81006
▁Smith	-9.81089
▁creepy	-9.81089
▁fashion	-9.81089
▁mouth	-9.81089
▁romance	-9.81089
▁attitude	-9.8109
▁visit	-9.8109
▁expectations	-9.81091
▁information	-9.81094
▁connection	-9.81119
▁disturbing	-9.81119
▁Film	-9.81137
▁promise	-9.81159
▁trailer	-9.81196
▁intelligent	-9.8123
▁suddenly	-9.81263
▁Lu	-9.81275
ka	-9.8129
▁dramatic	-9.81305
▁emotion	-9.81521
▁million	-9.81542
▁zombie	-9.81613
▁student	-9.81615
▁remain	-9.81623
▁week	-9.81644
▁Du	-9.81717
▁asked	-9.81856
▁casting	-9.81872
ti	-9.81909
▁sexy	-9.82059
bo	-9.82105
ex	-9.82165
▁pain	-9.82224
ver	-9.82236
▁ch	-9.82355
▁inter	-9.82417
▁supposedly	-9.82563
▁exception	-9.82591
▁19	-9.82681
gu	-9.8274
▁skin	-9.82874
▁Se	-9.83117
ette	-9.83139
▁miss	-9.83498
ties	-9.83525
ock	-9.83525
▁lacking	-9.83574
unt	-9.8364
▁carry	-9.83733
budget	-9.83734
ue	-9.8378
▁Lo	-9.83819
▁meaning	-9.83888
▁destroy	-9.83889
▁convincing	-9.83942
▁utter	-9.83962
ring	-9.83963
▁success	-9.8413
Don	-9.84176
▁Lynch	-9.84315
▁World	-9.84315
▁brief	-9.84315
▁angry	-9.84316
▁humour	-9.84316
▁mask	-9.8432
▁dying	-9.84324
▁tough	-9.84326
▁mad	-9.84328
▁amateurish	-9.84328
▁popular	-9.84347
▁pretentious	-9.84364
▁bottom	-9.84383
▁victims	-9.84396
▁city	-9.84398
▁loud	-9.84427
▁somewhere	-9.84438
tra	-9.84456
▁mid	-9.84458
▁Every	-9.8449
▁round	-9.84509
▁Steven	-9.84612
▁sn	-9.84702
ff	-9.8474
▁o	-9.84765
▁Movie	-9.85043
▁heck	-9.8506
▁Pa	-9.85244
▁leader	-9.85314
▁longer	-9.85319
▁Ben	-9.85404
▁worked	-9.85625
▁talented	-9.85641
▁shop	-9.85765
▁following	-9.85815
▁flicks	-9.85869
He	-9.86107
ise	-9.86157
▁begins	-9.86293
ger	-9.8644
▁fat	-9.86598
▁business	-9.86881
`	-9.87057
▁eat	-9.87097
right	-9.87135
▁date	-9.87539
ized	-9.87559
▁clue	-9.87614
▁lose	-9.87627
▁mark	-9.87639
+	-9.87648
▁Because	-9.87648
▁fault	-9.87648
▁process	-9.87648
	-9.87649
▁cash	-9.87649
▁hurt	-9.87652
▁Mexican	-9.87652
▁sake	-9.87665
▁science	-9.8767
▁step	-9.87671
▁cold	-9.87673
▁fantasy	-9.87699
▁bland	-9.87718
▁nonsense	-9.87719
▁language	-9.87739
▁professional	-9.87784
▁Night	-9.87811
tion	-9.87839
▁scenery	-9.87853
▁rape	-9.87869
▁sell	-9.87893
▁honestly	-9.88123
▁missed	-9.88236
ak	-9.88243
▁doctor	-9.88315
ail	-9.88335
▁location	-9.88374
▁detail	-9.88389
▁Did	-9.8854
▁Day	-9.88684
com	-9.88686
cy	-9.88715
▁makers	-9.88931
▁pieces	-9.89074
▁pi	-9.89108
ney	-9.89218
AR	-9.89916
ler	-9.90218
iz	-9.90305
what	-9.90316
▁Z	-9.90392
▁allow	-9.90398
va	-9.904
_	-9.90502
director	-9.90516
▁monsters	-9.90568
Well	-9.90594
ame	-9.90799
▁Space	-9.90857
▁Y	-9.90894
▁Sam	-9.90898
ions	-9.90936
▁program	-9.9098
▁Bill	-9.91075
▁club	-9.91097
▁exciting	-9.91097
▁suspect	-9.91098
▁thin	-9.91113
▁unfunny	-9.91117
▁cave	-9.9112
▁grace	-9.91122
▁force	-9.91135
▁join	-9.91139
▁Bruce	-9.9117
▁Dracula	-9.9117
▁Jane	-9.91191
▁flow	-9.91193
▁Guy	-9.91201
▁brutal	-9.91202
▁soft	-9.91203
▁pop	-9.91271
All	-9.91282
▁seconds	-9.91328
▁race	-9.9135
▁Any	-9.91414
▁outside	-9.91422
▁More	-9.91457
LY	-9.915
▁allowed	-9.91557
▁names	-9.91774
▁choice	-9.91872
▁Ro	-9.91876
▁ball	-9.91892
▁bird	-9.91898
▁vi	-9.91928
▁mo	-9.92058
▁cost	-9.92122
▁Love	-9.92183
her	-9.9222
▁teenagers	-9.92311
▁alive	-9.92311
ming	-9.92452
▁YOU	-9.92585
ac	-9.9297
▁driv	-9.93181
ize	-9.9323
che	-9.93396
use	-9.93463
▁80'	-9.93511
▁design	-9.9377
▁students	-9.94069
house	-9.941
Now	-9.94119
▁truck	-9.94135
ball	-9.94235
▁Can	-9.94392
▁depict	-9.94615
▁desperate	-9.94668
▁genuine	-9.94668
▁narrative	-9.94668
▁chemistry	-9.94669
▁literally	-9.9467
▁pair	-9.9468
▁jail	-9.94681
▁stock	-9.94682
▁insane	-9.94685
▁season	-9.94688
▁boat	-9.94689
▁uninteresting	-9.94702
▁Take	-9.94709
mm	-9.94719
▁photography	-9.94725
▁ultimately	-9.94739
▁mystery	-9.94745
▁African	-9.94749
▁era	-9.94772
ina	-9.9478
▁edited	-9.9481
▁disgusting	-9.94815
▁Blood	-9.94829
▁Martin	-9.94867
▁Jones	-9.94869
▁focus	-9.94876
▁w	-9.94879
▁mission	-9.9489
ony	-9.9496
▁treated	-9.9499
▁portrayed	-9.95001
▁ran	-9.9505
▁utterly	-9.95061
▁eating	-9.95344
▁accident	-9.95356
▁keeps	-9.95409
▁singing	-9.95467
▁appeared	-9.9556
▁wall	-9.95667
▁dream	-9.95696
▁animal	-9.95702
▁Mi	-9.95745
ship	-9.95823
▁nucle	-9.95854
ep	-9.96069
bit	-9.96074
eep	-9.96096
men	-9.96098
▁revolve	-9.96269
ong	-9.96274
No	-9.96841
▁news	-9.96895
▁bits	-9.97079
▁laughed	-9.97315
▁logic	-9.97381
ec	-9.97631
▁Chris	-9.97726
idden	-9.97746
▁record	-9.97746
ors	-9.97777
American	-9.97791
▁charm	-9.97819
▁develop	-9.97897
▁listen	-9.97899
▁junk	-9.97911
One	-9.97996
▁apparent	-9.98022
▁absolute	-9.98024
▁pan	-9.98028
▁product	-9.98323
▁host	-9.98361
▁author	-9.98367
▁accurate	-9.98372
▁contrived	-9.98372
▁regular	-9.98372
▁society	-9.98372
▁promising	-9.98372
▁heavy	-9.98372
▁boyfriend	-9.98372
▁Power	-9.98372
▁content	-9.98372
▁presence	-9.98372
▁asleep	-9.98373
▁difference	-9.98373
▁imagination	-9.98373
▁tension	-9.98375
▁blind	-9.98377
▁studio	-9.98402
▁dad	-9.98404
▁office	-9.98407
▁cinematic	-9.98411
▁thus	-9.98416
▁reach	-9.98427
▁Disney	-9.98428
▁street	-9.98434
▁station	-9.98436
▁eventually	-9.98446
▁frame	-9.98446
▁machine	-9.9845
▁Other	-9.98467
▁Black	-9.98473
▁Despi	-9.98474
evin	-9.98527
▁moral	-9.98603
star	-9.98645
▁moves	-9.98736
▁clichéd	-9.98781
ile	-9.98983
end	-9.99006
ze	-9.99046
EN	-9.99052
▁intended	-9.99091
con	-9.99098
ED	-9.99122
▁blame	-9.99246
▁area	-9.99267
▁led	-9.99344
▁bo	-9.99389
▁situations	-9.99407
▁track	-9.99453
▁adult	-9.995
rated	-9.9957
OR	-9.99611
▁values	-9.99719
▁ready	-10
over	-10.0001
ery	-10.0009
▁lover	-10.0024
▁images	-10.003
au	-10.0033
they	-10.0045
ping	-10.009
▁boo	-10.0092
▁dude	-10.0093
▁magic	-10.0102
istic	-10.0109
lly	-10.0131
ide	-10.0131
▁sea	-10.0158
X	-10.016
▁hang	-10.0162
making	-10.0167
▁deserves	-10.0169
▁Kill	-10.0183
▁loose	-10.0186
▁Con	-10.019
▁involve	-10.019
▁survive	-10.0206
▁Angel	-10.0209
▁Lewis	-10.0222
▁London	-10.0222
▁Queen	-10.0222
▁approach	-10.0222
▁awkward	-10.0222
▁convince	-10.0222
▁mysterious	-10.0222
▁suicide	-10.0222
▁tedious	-10.0222
▁zero	-10.0222
▁indeed	-10.0222
▁search	-10.0222
▁Danny	-10.0223
▁enter	-10.0224
▁load	-10.0224
▁appearance	-10.0224
▁length	-10.0228
▁13	-10.0228
▁effective	-10.0228
▁opportunity	-10.0229
▁Charlie	-10.0229
▁anywhere	-10.023
ight	-10.0234
▁afraid	-10.0234
▁Please	-10.0237
▁pretend	-10.0237
▁army	-10.0239
▁Hell	-10.0239
▁phone	-10.0242
▁laughter	-10.0242
▁advice	-10.0243
▁drugs	-10.0247
AN	-10.0248
▁greatest	-10.0256
▁Ch	-10.0257
ham	-10.0266
▁recently	-10.0266
▁endless	-10.0272
lock	-10.0288
▁ti	-10.0294
ey	-10.0297
rk	-10.0299
▁:	-10.0309
▁en	-10.0312
▁seat	-10.032
▁murdered	-10.0324
▁include	-10.0347
▁blow	-10.0348
▁ghost	-10.0349
▁lu	-10.0349
gi	-10.0352
▁ski	-10.0368
▁teen	-10.0378
▁lighting	-10.0379
eg	-10.0387
ung	-10.0398
ities	-10.0444
work	-10.0466
atur	-10.0472
▁40	-10.0473
low	-10.0494
ute	-10.0506
uck	-10.053
▁featur	-10.0536
▁Ba	-10.0556
▁roll	-10.0556
▁drink	-10.0559
ning	-10.0564
▁100	-10.0565
Some	-10.0565
Oh	-10.0574
looking	-10.0578
▁natural	-10.0585
▁clichés	-10.0601
starring	-10.0605
▁favor	-10.0621
▁dreadful	-10.0622
▁horribly	-10.0622
▁intelligence	-10.0622
▁likable	-10.0622
▁serial	-10.0622
▁complex	-10.0622
▁nobody	-10.0622
▁government	-10.0622
▁Girl	-10.0622
▁tape	-10.0622
▁naked	-10.0622
▁push	-10.0622
▁relative	-10.0622
▁culture	-10.0623
▁Paris	-10.0624
▁bank	-10.0625
▁Howard	-10.0625
▁Kane	-10.0625
▁personality	-10.0625
▁Out	-10.0628
▁Good	-10.0628
▁screenwriter	-10.0628
▁unlike	-10.063
▁red	-10.0632
▁Moon	-10.0633
▁People	-10.0633
▁familiar	-10.0634
▁sight	-10.0635
▁stinker	-10.0637
▁correct	-10.0638
▁Jr	-10.0641
▁rental	-10.0643
▁band	-10.0647
▁ability	-10.065
▁letter	-10.0657
▁below	-10.0664
▁tr	-10.0665
▁generally	-10.0678
▁suck	-10.0685
▁`	-10.0693
▁rid	-10.0698
▁return	-10.0712
lie	-10.0713
ving	-10.0717
rap	-10.0722
ible	-10.0726
▁whom	-10.0748
▁gangster	-10.0761
▁criminal	-10.0763
▁contain	-10.0767
fa	-10.0769
▁producer	-10.0789
▁Mc	-10.0798
we	-10.0822
▁Bob	-10.0826
▁helped	-10.0851
▁acts	-10.0855
pp	-10.0862
Do	-10.0878
fully	-10.0879
▁su	-10.088
▁skip	-10.089
▁details	-10.0946
cing	-10.0966
▁remains	-10.0967
▁("	-10.0968
▁steal	-10.0976
Overall	-10.0979
year	-10.0981
back	-10.0984
good	-10.0992
▁reveal	-10.0993
core	-10.1004
▁drunk	-10.1035
▁chick	-10.1037
▁commit	-10.1037
▁everybody	-10.1038
▁evidence	-10.1038
▁technical	-10.1038
▁thousand	-10.1038
▁clean	-10.1038
▁innocent	-10.1038
▁awesome	-10.1038
▁network	-10.1039
▁bodies	-10.1039
▁mountain	-10.1039
▁available	-10.1039
▁curious	-10.1039
▁1950	-10.1039
▁failure	-10.1039
▁stuck	-10.104
▁six	-10.104
▁fame	-10.1041
▁reaction	-10.1043
▁impressive	-10.1045
▁Russian	-10.1047
▁boss	-10.1047
▁Miss	-10.1047
TV	-10.1052
▁master	-10.1056
▁Never	-10.1057
▁unintentionally	-10.1058
▁Very	-10.1059
▁Dark	-10.1063
our	-10.1082
▁driver	-10.1086
ound	-10.1089
▁screaming	-10.109
▁noticed	-10.1092
▁Chan	-10.1094
▁wise	-10.1095
▁10.	-10.1098
▁Time	-10.1099
▁X	-10.1103
see	-10.1106
▁willing	-10.1117
▁directors	-10.1118
▁soul	-10.1119
fest	-10.1119
▁planet	-10.1164
▁weapons	-10.1174
ince	-10.1177
▁scare	-10.118
bout	-10.1182
▁ru	-10.1213
▁fi	-10.1242
OL	-10.1253
▁Po	-10.1259
▁Ann	-10.1287
▁adventure	-10.1293
ward	-10.1298
▁hat	-10.1299
dom	-10.1313
▁Har	-10.1314
▁met	-10.132
▁Sh	-10.1333
▁adds	-10.1343
▁bear	-10.1346
ped	-10.135
▁Ri	-10.136
▁Red	-10.1362
pi	-10.1398
▁hunt	-10.1398
screen	-10.1415
film	-10.1415
▁sympath	-10.1422
▁fool	-10.1426
▁historical	-10.1437
▁Mad	-10.144
made	-10.1444
▁board	-10.1447
▁Rock	-10.1453
▁cry	-10.1457
▁gold	-10.1471
▁consist	-10.1473
▁President	-10.1473
▁lesbian	-10.1473
▁addition	-10.1473
▁refuse	-10.1473
▁Two	-10.1473
▁discuss	-10.1473
▁jerk	-10.1473
▁AND	-10.1473
▁wander	-10.1473
▁window	-10.1474
▁green	-10.1474
▁switch	-10.1474
▁caught	-10.1474
▁edge	-10.1474
▁4/10	-10.1474
▁assume	-10.1475
▁excited	-10.1475
▁Ne	-10.1476
Next	-10.1477
▁mock	-10.1477
▁dare	-10.1477
▁Horror	-10.1477
▁grand	-10.1478
▁Ryan	-10.148
▁masterpiece	-10.148
▁Show	-10.1481
▁broken	-10.1483
▁Paul	-10.1485
▁road	-10.1485
▁Wow	-10.1486
▁Hav	-10.1487
▁limited	-10.1488
▁loser	-10.149
ept	-10.1497
▁Still	-10.1497
▁teacher	-10.15
▁field	-10.1501
▁Matt	-10.1507
▁hopes	-10.1512
▁Park	-10.1514
***	-10.1516
▁knowing	-10.1518
▁Anyway	-10.1523
ual	-10.1542
??	-10.1544
cent	-10.1557
▁bloody	-10.1559
▁shocking	-10.156
cul	-10.1569
sen	-10.1574
An	-10.1576
▁explained	-10.1577
▁aim	-10.1619
▁forever	-10.162
......	-10.1624
▁followed	-10.1624
▁rated	-10.1639
ought	-10.1661
▁fights	-10.1663
▁member	-10.1671
▁farm	-10.1682
▁brothers	-10.1684
▁flaws	-10.1691
though	-10.1697
▁aspects	-10.1702
▁Dan	-10.171
▁issues	-10.1727
ory	-10.1746
grade	-10.1758
▁Sp	-10.1767
fer	-10.1782
▁prefer	-10.1786
▁tone	-10.1792
▁cops	-10.1792
▁whi	-10.1793
▁sum	-10.18
ction	-10.1807
▁dies	-10.1808
▁v	-10.181
ip	-10.1828
ied	-10.1829
gging	-10.1838
oth	-10.1852
▁zombies	-10.1854
▁Sci	-10.1867
▁faces	-10.187
▁aside	-10.1884
▁arts	-10.1885
night	-10.1888
▁sta	-10.1907
▁pen	-10.192
▁teenage	-10.1921
▁gl	-10.1923
▁Saudi	-10.1928
▁central	-10.1928
▁encounter	-10.1928
▁energy	-10.1928
▁franchise	-10.1928
▁irritating	-10.1928
▁married	-10.1928
▁negative	-10.1928
▁vehicle	-10.1928
▁beauty	-10.1928
▁regret	-10.1928
▁rival	-10.1928
▁pilot	-10.1928
▁Norris	-10.1928
▁double	-10.1928
▁memory	-10.1928
▁current	-10.1928
▁center	-10.1928
▁therefore	-10.1928
▁service	-10.1928
▁alright	-10.1928
▁terrific	-10.1928
▁minor	-10.1929
▁continuity	-10.1929
▁Robin	-10.193
▁unique	-10.193
▁statement	-10.1932
▁Jackson	-10.1932
▁bright	-10.1932
▁Actually	-10.1932
▁Catherine	-10.1932
▁impact	-10.1934
▁artistic	-10.1934
▁genius	-10.1935
bad	-10.1935
▁plus	-10.194
▁officer	-10.1941
▁Yeah	-10.1943
▁yeah	-10.1943
▁Director	-10.1943
▁Was	-10.1945
▁freak	-10.1945
▁45	-10.1945
▁****	-10.1952
▁Does	-10.1955
▁City	-10.1955
▁originality	-10.1957
▁ON	-10.1965
▁actresses	-10.1968
▁II	-10.1969
▁Ni	-10.1969
▁developed	-10.1984
▁telling	-10.1994
▁finished	-10.1995
▁personally	-10.1996
▁lock	-10.2001
wood	-10.2002
▁beach	-10.2006
ST	-10.2012
▁higher	-10.2017
▁j	-10.2023
▁seeming	-10.2025
tri	-10.2026
▁May	-10.2029
▁presented	-10.2029
▁stereotypes	-10.2038
▁Come	-10.2042
ink	-10.2042
▁according	-10.2042
▁lived	-10.2054
▁bothered	-10.2061
▁warm	-10.2073
▁terms	-10.2076
▁li	-10.2088
▁unrealistic	-10.2097
▁Mel	-10.21
▁paint	-10.2101
▁hated	-10.2104
▁pet	-10.2104
vo	-10.2125
▁Ar	-10.2134
▁issue	-10.2143
▁standard	-10.2149
▁Ho	-10.2152
iness	-10.2165
▁Sa	-10.2167
▁ill	-10.2176
▁ba	-10.2182
void	-10.219
▁artist	-10.2198
▁contains	-10.2233
▁likely	-10.2234
▁Fe	-10.2266
▁feelings	-10.228
▁im	-10.2299
action	-10.2318
▁grat	-10.233
▁Bar	-10.2333
plot	-10.2345
Where	-10.2345
style	-10.2345
Why	-10.2347
played	-10.2349
▁Tim	-10.2367
▁spin	-10.2371
▁fift	-10.2385
▁bore	-10.2389
▁punch	-10.2397
▁gra	-10.2398
terribly	-10.2404
▁Texas	-10.2404
▁Wayne	-10.2404
▁cheese	-10.2404
▁comparison	-10.2404
▁dancing	-10.2404
▁embarrassed	-10.2404
▁motivation	-10.2404
▁necessary	-10.2404
▁teeth	-10.2404
▁unnecessary	-10.2404
▁Fox	-10.2404
▁device	-10.2404
▁Zoey	-10.2404
▁root	-10.2404
▁football	-10.2404
▁somebody	-10.2404
▁Adam	-10.2405
▁Moses	-10.2405
▁responsible	-10.2405
▁Devil	-10.2405
▁rise	-10.2405
▁screw	-10.2405
▁witty	-10.2406
▁Barry	-10.2406
▁60	-10.2406
▁Yet	-10.2406
▁coach	-10.2407
▁slapstick	-10.2408
▁graphic	-10.241
▁Halloween	-10.2411
▁sent	-10.2411
▁anymore	-10.2412
▁goofy	-10.2414
▁Okay	-10.2414
▁choose	-10.2415
▁Lone	-10.2417
▁DO	-10.2417
▁social	-10.2419
dead	-10.2425
▁mildly	-10.2427
▁becoming	-10.2428
▁owner	-10.2428
▁damn	-10.2435
▁wide	-10.2441
▁Get	-10.2463
▁soap	-10.2464
ax	-10.2465
▁designed	-10.2467
▁destroyed	-10.2472
▁scared	-10.2473
▁?	-10.248
▁bull	-10.2488
▁provided	-10.2488
▁law	-10.2491
▁murderer	-10.2497
▁sequels	-10.2507
▁portray	-10.251
ean	-10.2515
▁Stan	-10.2517
hoo	-10.2525
▁poster	-10.2525
ried	-10.2526
▁inept	-10.2526
uring	-10.2549
▁critics	-10.2562
▁ahead	-10.2564
ical	-10.2569
ale	-10.2571
▁Vi	-10.2578
▁slowly	-10.2587
▁renting	-10.259
▁ruin	-10.259
▁note	-10.2595
▁heads	-10.26
▁claim	-10.2607
▁asks	-10.2614
▁worthy	-10.2616
▁Americans	-10.2622
▁Oscar	-10.2623
▁element	-10.2636
▁rescue	-10.2639
ging	-10.2651
RA	-10.2655
?).	-10.266
▁spirit	-10.2665
▁standards	-10.2684
ven	-10.2701
▁1.	-10.2707
%	-10.2718
▁Ka	-10.2722
▁guns	-10.273
▁adults	-10.2753
▁understanding	-10.2764
port	-10.2779
▁costs	-10.2781
▁Cat	-10.2796
vin	-10.2806
é	-10.2809
▁imp	-10.2825
let	-10.2842
▁scream	-10.2843
life	-10.2846
Whi	-10.2848
▁extras	-10.285
bs	-10.2856
▁treat	-10.2858
▁concern	-10.2858
▁quick	-10.2869
▁stink	-10.2887
▁base	-10.2887
read	-10.289
▁fiction	-10.2896
#	-10.2901
▁amateur	-10.2902
▁represent	-10.2902
▁object	-10.2902
▁drop	-10.2903
▁Hitchcock	-10.2904
▁Little	-10.2904
▁Nicole	-10.2904
▁abysmal	-10.2904
▁disbelief	-10.2904
▁hundred	-10.2904
▁individual	-10.2904
▁knock	-10.2904
▁revenge	-10.2904
▁crowd	-10.2904
▁ALL	-10.2904
▁priest	-10.2904
▁paper	-10.2904
▁surround	-10.2904
▁wild	-10.2904
▁native	-10.2904
▁hospital	-10.2904
▁vague	-10.2904
▁instance	-10.2904
▁Jerry	-10.2904
▁opposite	-10.2904
▁legend	-10.2904
▁Larry	-10.2905
▁decade	-10.2905
▁Roger	-10.2905
▁surface	-10.2905
▁massive	-10.2905
▁fellow	-10.2905
▁attractive	-10.2906
▁3/10	-10.2906
▁stereotypical	-10.2906
▁crack	-10.2906
▁Brian	-10.2906
▁expert	-10.2906
▁halfway	-10.2908
▁plastic	-10.2909
▁Bible	-10.2912
ump	-10.2912
▁Though	-10.2915
▁tw	-10.2916
uous	-10.2922
▁Rick	-10.2923
▁powerful	-10.2924
▁introduced	-10.2926
▁lesson	-10.2929
▁sympathy	-10.2931
▁hint	-10.2933
▁bigger	-10.2934
▁Rand	-10.2938
▁key	-10.2939
▁forgotten	-10.2955
▁ratings	-10.2957
▁campy	-10.2968
▁Overall	-10.2977
▁beside	-10.2987
▁offend	-10.2995
▁showed	-10.2998
how	-10.3026
);	-10.3037
!).	-10.3049
▁na	-10.3052
▁fail	-10.3052
▁Fa	-10.3063
▁k	-10.3063
▁gr	-10.3081
don	-10.3084
▁saved	-10.3086
▁ice	-10.3091
▁TO	-10.3092
▁Hard	-10.3095
▁van	-10.3102
▁separate	-10.3108
mate	-10.3108
▁older	-10.3109
▁pe	-10.3109
▁Fr	-10.312
igh	-10.3122
▁kick	-10.3124
▁sin	-10.3124
ON	-10.3142
di	-10.3143
▁idiot	-10.315
ries	-10.3156
▁commercial	-10.3157
▁image	-10.316
▁hire	-10.316
az	-10.3165
are	-10.3176
▁spot	-10.3176
▁Dian	-10.3183
▁filmmaker	-10.3191
▁Am	-10.3223
▁hey	-10.3228
row	-10.3246
**	-10.3249
▁carrie	-10.3253
▁Pre	-10.3259
nch	-10.3276
act	-10.3277
▁aspect	-10.3289
▁Roberts	-10.3308
where	-10.3337
▁emotions	-10.3342
▁intention	-10.3345
list	-10.3347
▁Will	-10.335
pro	-10.3357
Z	-10.3369
while	-10.337
!!!!	-10.337
Anyway	-10.3371
However	-10.3373
comedy	-10.3373
That	-10.3373
▁accept	-10.338
ja	-10.3396
den	-10.3399
▁em	-10.3406
▁luck	-10.3408
▁formula	-10.3426
▁exploit	-10.3428
there	-10.3429
pecial	-10.3429
▁occur	-10.343
▁hide	-10.343
▁Thomas	-10.343
▁empty	-10.343
▁generous	-10.343
▁influence	-10.343
▁psycho	-10.343
▁qualities	-10.343
▁research	-10.343
▁silent	-10.343
▁succeed	-10.343
▁twenty	-10.343
▁unconvincing	-10.343
▁uninspired	-10.343
▁virtual	-10.343
▁sweet	-10.343
▁affair	-10.343
▁numero	-10.343
▁born	-10.343
▁Barney	-10.3431
▁merit	-10.3431
▁tree	-10.3431
▁Ranger	-10.3432
▁trick	-10.3432
▁Mike	-10.3432
▁shut	-10.3433
▁attract	-10.3435
▁conflict	-10.3435
▁hack	-10.3436
▁dirty	-10.3439
▁USA	-10.3441
▁chosen	-10.3442
▁compelling	-10.3442
▁grave	-10.3444
▁SPOILERS	-10.3445
▁impressed	-10.3446
▁Evan	-10.3447
▁Really	-10.3447
▁lovely	-10.3452
▁passion	-10.3455
car	-10.3458
▁Look	-10.3459
▁useless	-10.346
▁warned	-10.346
▁Mac	-10.3461
▁gory	-10.3463
▁trust	-10.3464
▁Sadly	-10.3467
▁wit	-10.3473
▁concerned	-10.3479
att	-10.348
▁incredible	-10.3481
▁Part	-10.3486
▁revealed	-10.3489
▁Cor	-10.3491
▁Avoid	-10.3495
▁justice	-10.35
▁ne	-10.3515
▁shower	-10.3518
▁Satan	-10.3519
▁_	-10.3523
▁du	-10.3528
▁praise	-10.3538
zy	-10.3557
izing	-10.3557
▁skills	-10.3558
▁grade	-10.3572
▁Uni	-10.3573
▁thanks	-10.3601
ita	-10.3614
▁buying	-10.3625
▁2.	-10.3629
▁Ta	-10.3634
50	-10.3646
▁flaw	-10.3671
▁calls	-10.3673
▁arm	-10.3677
▁tend	-10.3679
▁protagonist	-10.3706
▁subplot	-10.3708
▁bag	-10.3711
har	-10.372
▁recommended	-10.3725
RE	-10.3754
▁Williams	-10.3756
▁u	-10.3758
▁cla	-10.3759
▁Dar	-10.3772
▁protect	-10.379
gotten	-10.3795
▁believed	-10.3807
▁Big	-10.3814
ain	-10.3824
ture	-10.383
▁animals	-10.3834
▁loves	-10.3847
set	-10.3852
▁locations	-10.3865
nce	-10.3868
La	-10.3872
▁cares	-10.3877
They	-10.3894
face	-10.39
▁Bu	-10.3904
very	-10.3904
▁crash	-10.3916
dimensional	-10.3925
gar	-10.3943
real	-10.3943
▁surprising	-10.395
▁abuse	-10.3953
▁capture	-10.3955
away	-10.3978
▁relate	-10.3979
Un	-10.398
▁breath	-10.3984
▁wanna	-10.3985
▁youth	-10.3985
▁bin	-10.3986
▁Bullock	-10.3986
▁THIS	-10.3986
▁Vampire	-10.3986
▁associate	-10.3986
▁corpse	-10.3986
▁offensive	-10.3986
▁repetitive	-10.3986
▁routine	-10.3986
▁system	-10.3986
▁target	-10.3986
▁wreck	-10.3986
▁Cinema	-10.3986
▁atrocious	-10.3986
▁task	-10.3986
▁pacing	-10.3986
▁FBI	-10.3986
▁gross	-10.3986
▁guest	-10.3986
▁nasty	-10.3986
▁account	-10.3986
▁superior	-10.3986
▁detective	-10.3986
▁began	-10.3986
▁fresh	-10.3986
▁Stone	-10.3986
▁sentence	-10.3987
▁creative	-10.3987
▁treatment	-10.3987
▁comedian	-10.3988
▁tight	-10.3988
▁dump	-10.3988
▁sitcom	-10.399
▁commentary	-10.399
▁Gold	-10.3991
▁1970	-10.3991
▁advise	-10.3991
▁highlight	-10.3992
▁Dame	-10.3993
▁Max	-10.3993
▁thoroughly	-10.3993
▁amaze	-10.3993
▁Jackie	-10.3993
▁generation	-10.3995
▁hotel	-10.3995
▁Karen	-10.3996
▁lift	-10.3998
▁aware	-10.3998
▁corny	-10.4001
▁table	-10.4002
▁experiment	-10.4004
▁Angela	-10.4004
▁cable	-10.4007
▁model	-10.4007
▁Second	-10.4012
rate	-10.4013
▁Cha	-10.4014
▁mom	-10.4015
▁None	-10.4016
▁foot	-10.4023
▁share	-10.4024
▁surprisingly	-10.4027
▁Ti	-10.403
▁hits	-10.4032
▁Fu	-10.4035
▁Rod	-10.4037
▁singer	-10.4047
▁Bam	-10.4048
▁Joan	-10.4055
Let	-10.4057
▁delivers	-10.4058
▁Ray	-10.4059
▁bl	-10.4081
ford	-10.4089
ress	-10.4092
existent	-10.4095
00	-10.4102
ix	-10.4102
▁audiences	-10.4103
ious	-10.4108
▁sleeping	-10.4113
▁core	-10.4129
▁twists	-10.4137
▁dollars	-10.4137
long	-10.414
Ha	-10.4149
▁talks	-10.415
▁fe	-10.4156
ky	-10.4165
▁aliens	-10.4193
▁Hu	-10.4194
▁button	-10.4221
▁Count	-10.4227
lon	-10.4236
▁para	-10.4244
▁fantastic	-10.4274
oh	-10.4287
▁IT	-10.4288
▁angle	-10.4301
.....	-10.4302
▁par	-10.4317
▁meeting	-10.4321
under	-10.4338
▁se	-10.435
▁Boy	-10.4376
▁Je	-10.4377
liners	-10.4378
▁themes	-10.4393
hip	-10.4404
▁player	-10.4407
aving	-10.4413
ich	-10.4436
On	-10.4441
bar	-10.4454
▁seek	-10.4462
tribute	-10.4464
▁actions	-10.4471
rapped	-10.4477
ane	-10.4496
▁See	-10.4499
▁Hal	-10.4505
roll	-10.4509
▁complain	-10.4509
Maybe	-10.4516
especially	-10.4516
Jack	-10.4517
fight	-10.4521
she	-10.4531
boy	-10.4534
▁raise	-10.4545
▁command	-10.4546
oy	-10.4555
▁compare	-10.4559
▁chi	-10.4566
miss	-10.4567
type	-10.4569
▁predict	-10.457
▁jo	-10.4572
▁cheerlead	-10.4574
▁Murphy	-10.4574
▁Taylor	-10.4574
▁Wagner	-10.4574
▁Women	-10.4574
▁assistant	-10.4574
▁gruesome	-10.4574
▁horrid	-10.4574
▁martial	-10.4574
▁poverty	-10.4574
▁print	-10.4574
▁quote	-10.4574
▁Arnold	-10.4574
▁Brown	-10.4574
▁Solomon	-10.4574
▁belief	-10.4574
▁funnier	-10.4574
▁Helsing	-10.4574
▁egg	-10.4574
▁incident	-10.4574
▁source	-10.4574
▁Captain	-10.4574
▁parody	-10.4574
▁solid	-10.4574
▁General	-10.4574
▁splatter	-10.4574
▁Ninja	-10.4574
▁Western	-10.4574
▁morning	-10.4574
▁flesh	-10.4575
▁replace	-10.4575
▁1960	-10.4575
▁THAT	-10.4575
▁borrow	-10.4575
▁Qui	-10.4575
▁blah	-10.4576
▁Edward	-10.4576
▁Tommy	-10.4576
▁propaganda	-10.4576
▁theatre	-10.4577
▁existence	-10.4577
▁fix	-10.4577
▁relief	-10.4578
▁Everyone	-10.4578
▁idiotic	-10.4579
▁essentially	-10.458
▁UK	-10.458
▁Noah	-10.458
▁safe	-10.4581
▁Sound	-10.4584
atch	-10.4586
▁lies	-10.4587
▁pile	-10.4587
▁tank	-10.4588
▁independent	-10.4588
▁gather	-10.4591
▁drawn	-10.4591
▁loss	-10.4592
▁Poor	-10.4592
▁smile	-10.4592
▁Dien	-10.4593
▁earn	-10.4593
▁Boll	-10.4596
▁reporter	-10.4597
▁mindless	-10.4598
▁rank	-10.4603
▁rushed	-10.4603
▁captured	-10.4607
▁stupidity	-10.461
▁Sheen	-10.4614
▁recall	-10.4614
▁judge	-10.4617
▁Bay	-10.4624
▁flying	-10.4625
▁mile	-10.4625
▁ruined	-10.463
▁Wi	-10.4634
▁Fred	-10.4634
▁cringe	-10.4637
lia	-10.4656
▁crying	-10.466
▁Na	-10.4666
▁rolling	-10.4667
run	-10.4668
▁Mu	-10.4676
▁previously	-10.468
▁realized	-10.4682
▁Pu	-10.4694
cra	-10.4696
▁El	-10.4697
▁solve	-10.47
live	-10.4717
▁def	-10.4723
tended	-10.4728
▁suffers	-10.4754
lf	-10.4759
▁puppets	-10.4769
ative	-10.4772
▁card	-10.4783
▁references	-10.4786
▁gal	-10.4795
Then	-10.4797
▁leg	-10.4798
▁cur	-10.4804
▁blo	-10.4807
unk	-10.4811
▁talents	-10.4816
▁scripted	-10.4817
▁numbers	-10.4822
▁site	-10.4847
than	-10.4852
▁angles	-10.4855
▁caus	-10.486
▁players	-10.4886
▁commercials	-10.489
▁le	-10.4915
▁expression	-10.4924
▁costume	-10.493
▁Pal	-10.4939
▁dec	-10.4954
ged	-10.4956
▁soldier	-10.4959
filled	-10.4968
▁Men	-10.4996
▁Ber	-10.5004
head	-10.5007
▁ya	-10.5022
▁Sha	-10.5029
air	-10.5041
▁sole	-10.5067
▁repeat	-10.5088
▁burn	-10.509
play	-10.5093
▁struggle	-10.5096
▁den	-10.5097
▁weeks	-10.51
ux	-10.5118
▁draw	-10.5118
▁vampires	-10.5118
▁scar	-10.5136
▁rob	-10.5139
First	-10.5141
Also	-10.5141
Just	-10.5141
John	-10.5141
horror	-10.5141
watch	-10.5145
Avoid	-10.5147
▁stretch	-10.5151
▁connect	-10.5153
▁Are	-10.5155
▁wrestl	-10.5159
▁sudden	-10.5164
▁exact	-10.5166
▁proper	-10.5169
ET	-10.5185
Yes	-10.5194
entific	-10.5195
▁melodrama	-10.5198
▁intriguing	-10.5199
Spoiler	-10.5199
▁Campbell	-10.5199
▁Washington	-10.5199
▁astronaut	-10.5199
▁buddies	-10.5199
▁colour	-10.5199
▁competition	-10.5199
▁depressing	-10.5199
▁exercise	-10.5199
▁helicopter	-10.5199
▁implausible	-10.5199
▁jungle	-10.5199
▁ludicrous	-10.5199
▁newspaper	-10.5199
▁pitiful	-10.5199
▁position	-10.5199
▁religious	-10.5199
▁strength	-10.5199
▁summary	-10.5199
▁unusual	-10.5199
▁variety	-10.5199
▁downhill	-10.5199
▁Again	-10.5199
▁Sandra	-10.5199
▁stiff	-10.5199
▁risk	-10.5199
▁contact	-10.5199
▁clothing	-10.5199
▁Jesse	-10.5199
▁court	-10.5199
▁cruel	-10.5199
▁crude	-10.5199
▁ashamed	-10.5199
▁shark	-10.5199
▁Grade	-10.5199
▁Yep	-10.52
▁forgot	-10.52
▁twice	-10.52
▁Would	-10.52
▁terrorist	-10.5201
▁fuel	-10.5201
▁collection	-10.5201
▁stopped	-10.5202
▁relie	-10.5202
▁spare	-10.5204
▁chicken	-10.5205
▁Stupid	-10.5205
▁spoof	-10.5205
▁foreign	-10.5205
▁drags	-10.5206
▁animated	-10.5207
▁stolen	-10.5208
▁demand	-10.5209
▁intellectual	-10.5209
20	-10.521
▁Tony	-10.521
▁guilty	-10.5212
▁prepared	-10.5212
▁latter	-10.5213
▁test	-10.5215
▁danger	-10.5216
▁Friday	-10.5217
▁pity	-10.522
▁manner	-10.5223
▁upset	-10.5225
▁PG	-10.5226
▁Sorry	-10.5227
▁worthless	-10.523
▁receive	-10.5231
▁bu	-10.5234
▁rap	-10.5243
▁heroes	-10.5244
▁warning	-10.5245
▁joy	-10.5248
▁ja	-10.5265
▁emotionally	-10.5277
ino	-10.5277
ple	-10.5286
▁anger	-10.5289
▁op	-10.5295
other	-10.5295
▁Brooks	-10.5297
▁focused	-10.531
▁ob	-10.5314
more	-10.5314
▁Jenn	-10.532
LE	-10.5323
▁sun	-10.5335
▁comical	-10.534
▁Gar	-10.5351
▁Ste	-10.5354
▁learned	-10.5356
How	-10.5363
berg	-10.5379
▁Ms	-10.5383
▁accents	-10.5387
▁flashbacks	-10.5407
ool	-10.5414
▁closed	-10.5422
▁range	-10.5432
▁Ru	-10.544
▁mob	-10.5441
▁speaking	-10.5442
▁games	-10.5453
▁arrive	-10.5462
▁stands	-10.5466
▁strip	-10.5469
▁IN	-10.5497
bu	-10.5499
ire	-10.5499
▁tie	-10.55
▁fund	-10.5554
▁dim	-10.5557
Fi	-10.5564
▁medic	-10.5565
▁color	-10.5568
▁bite	-10.5581
▁conversation	-10.5588
hand	-10.5615
▁preci	-10.5628
Ba	-10.5634
▁ghosts	-10.5647
▁cameo	-10.5647
▁includes	-10.5669
▁Ted	-10.567
▁Alex	-10.5688
▁4.	-10.5692
nyone	-10.5701
▁focuse	-10.5728
▁beer	-10.5741
▁Gra	-10.5752
1)	-10.5753
▁places	-10.5755
down	-10.5759
cious	-10.5759
called	-10.5763
▁Gi	-10.5768
▁3.	-10.5769
come	-10.577
▁pal	-10.5777
rry	-10.5782
▁spoil	-10.5802
school	-10.5805
After	-10.5808
board	-10.5808
With	-10.5808
▁Hunt	-10.581
worthy	-10.5811
▁hook	-10.5812
▁Have	-10.5817
law	-10.5827
▁wound	-10.5831
▁mental	-10.5833
▁speech	-10.5862
▁Cameron	-10.5866
▁Chinese	-10.5866
▁Kennedy	-10.5866
▁Pinhead	-10.5866
▁Sheriff	-10.5866
▁Tanzania	-10.5866
▁Wilson	-10.5866
▁celluloid	-10.5866
▁childhood	-10.5866
▁climb	-10.5866
▁decision	-10.5866
▁determine	-10.5866
▁fascinating	-10.5866
▁generic	-10.5866
▁incoherent	-10.5866
▁miserably	-10.5866
▁puzzle	-10.5866
▁recognize	-10.5866
▁reduce	-10.5866
▁smoke	-10.5866
▁spectacular	-10.5866
▁tragedy	-10.5866
▁village	-10.5866
▁Christmas	-10.5866
▁Three	-10.5866
▁harsh	-10.5866
▁ANY	-10.5866
▁prevent	-10.5866
▁queen	-10.5866
▁dozen	-10.5866
▁miscast	-10.5866
▁excessive	-10.5866
▁shoe	-10.5866
▁dropped	-10.5866
▁satire	-10.5866
▁European	-10.5867
▁understood	-10.5867
▁scale	-10.5867
funniest	-10.5867
▁wake	-10.5867
▁Comedy	-10.5867
▁Hitch	-10.5867
▁feet	-10.5868
▁bash	-10.5868
▁dangerous	-10.5868
iest	-10.5869
▁size	-10.5869
▁finger	-10.587
▁seven	-10.587
▁Jean	-10.587
▁health	-10.587
▁Gein	-10.5871
▁chest	-10.5871
▁flies	-10.5872
▁pleasure	-10.5872
▁Himesh	-10.5872
▁Vincent	-10.5873
▁Bix	-10.5873
▁dry	-10.5874
▁page	-10.5876
▁Awful	-10.5876
▁appropriate	-10.5877
▁Ferr	-10.5877
▁vision	-10.5877
▁prisoners	-10.5878
▁Lord	-10.588
▁dubbed	-10.588
▁comedic	-10.5881
▁heroine	-10.5883
▁Otherwise	-10.5885
▁House	-10.5885
▁Read	-10.5885
kip	-10.5887
cat	-10.5889
▁Seriously	-10.5889
▁cream	-10.5889
▁heroic	-10.5889
▁White	-10.5889
▁critical	-10.5892
▁Dog	-10.5892
▁repeatedly	-10.5892
▁relationships	-10.5894
▁drivel	-10.5898
retty	-10.5899
▁annoyed	-10.5899
ook	-10.5906
▁rough	-10.5907
▁suffering	-10.5913
▁farce	-10.5913
▁creatures	-10.5913
▁anybody	-10.5918
▁Thing	-10.5922
▁cell	-10.5923
▁affect	-10.5924
▁Hunter	-10.5927
▁burning	-10.5933
▁Frank	-10.594
▁suits	-10.5945
▁pian	-10.5948
▁val	-10.5952
▁bucks	-10.5953
▁flee	-10.5954
▁/	-10.5956
▁curse	-10.5958
▁Had	-10.5961
▁drinking	-10.5972
▁agreed	-10.5972
▁Mark	-10.5974
▁makeup	-10.5995
▁Sho	-10.5995
▁Par	-10.5996
▁delivered	-10.5999
▁Tru	-10.6001
▁Many	-10.6005
▁Far	-10.6011
▁months	-10.603
▁Mil	-10.6031
▁offered	-10.6034
▁ham	-10.6035
hy	-10.6048
uh	-10.6054
▁Ex	-10.6071
▁continues	-10.6075
▁cons	-10.6078
ou	-10.6095
zing	-10.6118
▁Com	-10.6118
▁lower	-10.6119
▁opera	-10.6122
inger	-10.6127
ium	-10.6133
2)	-10.6172
▁gas	-10.619
ose	-10.6203
At	-10.6205
AD	-10.6217
▁Ram	-10.6218
SE	-10.6227
ral	-10.6229
▁Ken	-10.6248
▁ruins	-10.6249
▁disappear	-10.6259
Ho	-10.6268
▁ripp	-10.627
hard	-10.6278
q	-10.6303
▁Hill	-10.631
▁Ty	-10.6317
▁flop	-10.633
▁matters	-10.6358
too	-10.6361
▁lur	-10.6381
AL	-10.6386
▁pee	-10.6393
cho	-10.6417
▁creat	-10.6434
gged	-10.6451
▁Rid	-10.6462
TE	-10.6467
▁Sea	-10.6473
hal	-10.6475
▁Per	-10.6483
make	-10.6507
▁Hey	-10.6509
10	-10.6514
view	-10.6516
funny	-10.652
place	-10.652
▁Liv	-10.652
includ	-10.6521
just	-10.6521
mentioned	-10.6522
Unfortunately	-10.6522
▁spit	-10.653
▁bill	-10.6534
aked	-10.6539
▁teach	-10.6547
▁desire	-10.6548
▁hype	-10.6553
▁faith	-10.6554
▁sheer	-10.6561
was	-10.6567
▁Vietnam	-10.6567
hin	-10.6571
▁Sure	-10.6573
▁fo	-10.6573
▁flash	-10.6573
▁Julia	-10.6577
▁High	-10.6578
keleton	-10.6578
▁kidnap	-10.6579
▁charisma	-10.6579
▁chang	-10.6579
▁snow	-10.658
▁favour	-10.658
▁silver	-10.658
▁stomach	-10.658
nosaur	-10.658
▁1980	-10.658
▁Gordon	-10.658
▁Jessica	-10.658
▁MOVIE	-10.658
▁Spanish	-10.658
▁VHS	-10.658
▁advance	-10.658
▁church	-10.658
▁corrupt	-10.658
▁description	-10.658
▁disjointed	-10.658
▁enemies	-10.658
▁equipment	-10.658
▁execution	-10.658
▁horrendous	-10.658
▁horrific	-10.658
▁pseudo	-10.658
▁substance	-10.658
▁subtitles	-10.658
▁Blade	-10.658
▁dinner	-10.658
▁enemy	-10.658
▁miserable	-10.658
▁price	-10.658
▁recover	-10.658
itizen	-10.658
▁menacing	-10.658
▁excruciating	-10.658
▁Trek	-10.658
▁Henry	-10.658
▁forgettable	-10.658
▁convict	-10.658
▁multiple	-10.658
▁environment	-10.658
▁cowboy	-10.658
▁tongue	-10.658
▁Dutch	-10.658
▁NOTHING	-10.658
▁menace	-10.6581
▁sword	-10.6581
▁section	-10.6581
▁stunning	-10.6581
▁blockbuster	-10.6581
▁degree	-10.6581
▁lazy	-10.6581
▁forgive	-10.6581
▁trial	-10.6581
▁Coward	-10.6581
▁France	-10.6581
▁afore	-10.6582
▁wealth	-10.6582
▁naive	-10.6582
▁sacrifice	-10.6582
▁meaningful	-10.6583
▁#1	-10.6584
▁Right	-10.6584
▁fade	-10.6586
▁Tarantino	-10.6587
▁Tarzan	-10.6587
▁tasteless	-10.659
▁Someone	-10.6591
▁acceptable	-10.6592
▁Island	-10.6592
▁Family	-10.6596
▁hopeless	-10.6599
▁Sale	-10.6602
▁possessed	-10.6602
▁cow	-10.6604
▁23	-10.6604
▁boob	-10.6607
▁express	-10.6607
hed	-10.6608
▁haunted	-10.6609
acting	-10.6609
▁mass	-10.661
▁Which	-10.6611
ogan	-10.6612
grown	-10.6614
▁North	-10.6614
▁occasionally	-10.6616
▁Myers	-10.6616
▁raised	-10.6619
▁properly	-10.6622
▁Alien	-10.6623
▁Sex	-10.6624
▁char	-10.6624
▁pack	-10.6625
▁witch	-10.6629
▁weight	-10.6635
rupt	-10.6637
▁reasonable	-10.6638
▁semi	-10.6638
▁investigate	-10.6638
▁/>*	-10.6641
elve	-10.6642
▁Germany	-10.6648
▁lay	-10.6652
cience	-10.6652
ular	-10.6654
▁Carl	-10.6658
ulp	-10.666
▁**	-10.6666
▁proved	-10.6673
▁portraying	-10.6674
ern	-10.6686
▁11	-10.6692
▁amazingly	-10.6697
losing	-10.6698
▁struggl	-10.67
▁z	-10.6702
fire	-10.6704
▁recording	-10.6704
▁perfectly	-10.6708
▁breasts	-10.6715
ifer	-10.6718
▁meat	-10.672
▁twisted	-10.6741
OK	-10.6747
▁Give	-10.6757
▁moved	-10.6762
▁throwing	-10.6774
▁Beth	-10.6779
▁Gl	-10.6783
▁dealing	-10.6786
▁fly	-10.6801
▁Make	-10.6803
▁heist	-10.6803
▁AT	-10.6803
name	-10.6811
teen	-10.6828
▁hearing	-10.6831
characterization	-10.6836
Be	-10.6846
ana	-10.6848
▁Gu	-10.686
▁standing	-10.6863
▁package	-10.6864
▁Pol	-10.6865
movies	-10.6869
▁ro	-10.6871
▁plant	-10.6873
avi	-10.6883
ology	-10.6884
▁Add	-10.6889
▁villains	-10.6905
ken	-10.6914
rnie	-10.6925
▁translate	-10.6928
▁sw	-10.6941
▁$2	-10.6957
▁thrill	-10.6974
bor	-10.6987
arian	-10.6999
Mad	-10.701
▁Th	-10.7029
▁Hol	-10.7042
val	-10.705
▁reference	-10.7076
CH	-10.7077
▁criminals	-10.7078
▁teenager	-10.7092
▁blows	-10.7101
▁capabl	-10.7104
hu	-10.7108
▁indicat	-10.7131
▁dreams	-10.7143
▁attempting	-10.7152
IE	-10.7155
▁tear	-10.7155
Q	-10.7166
wee	-10.717
000	-10.7176
▁str	-10.7187
▁forces	-10.7192
▁Nor	-10.7194
can	-10.7196
UT	-10.7197
pper	-10.7199
pped	-10.72
▁Ce	-10.7201
▁Movies	-10.7209
▁entertain	-10.7244
ki	-10.7248
▁porno	-10.7258
till	-10.7258
thy	-10.7264
▁Luc	-10.7265
▁president	-10.7267
▁bat	-10.727
late	-10.7282
rash	-10.7285
▁market	-10.729
when	-10.7291
ease	-10.7296
▁Ron	-10.7301
▁physical	-10.7311
▁unintentional	-10.7314
▁constant	-10.7314
love	-10.7323
▁dislike	-10.7323
shot	-10.7324
loved	-10.7324
▁report	-10.7325
wise	-10.7325
▁nu	-10.7325
▁bare	-10.7327
Although	-10.7329
▁broke	-10.7332
▁chose	-10.7334
onic	-10.7335
▁tradition	-10.734
▁Charl	-10.7343
/10	-10.7345
▁Swed	-10.7346
VERY	-10.7347
▁subtle	-10.7348
▁yell	-10.7348
▁photo	-10.7349
▁intent	-10.7349
▁Japan	-10.7349
’	-10.7349
▁Church	-10.7349
▁Festival	-10.7349
▁Patterson	-10.7349
▁Travolta	-10.7349
▁behavior	-10.7349
▁community	-10.7349
▁credibility	-10.7349
▁dunno	-10.7349
▁engaging	-10.7349
▁plague	-10.7349
▁restaurant	-10.7349
▁scenario	-10.7349
▁sleazy	-10.7349
▁superficial	-10.7349
▁supernatural	-10.7349
▁technology	-10.7349
▁Arbus	-10.7349
▁built	-10.7349
▁financial	-10.7349
▁cousin	-10.7349
▁floor	-10.7349
▁glasses	-10.7349
▁status	-10.7349
▁epic	-10.7349
▁contest	-10.7349
▁nude	-10.7349
▁clown	-10.7349
▁extent	-10.7349
▁monkey	-10.7349
▁portion	-10.7349
▁convey	-10.7349
▁excitement	-10.7349
▁lawyer	-10.7349
▁introduction	-10.7349
▁challenge	-10.735
▁speed	-10.735
▁racial	-10.735
▁Hopper	-10.735
▁Kurtz	-10.735
▁installment	-10.735
▁chief	-10.735
▁Sarah	-10.735
▁winning	-10.7351
▁neck	-10.7352
▁Music	-10.7352
▁toilet	-10.7352
▁Norman	-10.7352
▁held	-10.7353
▁render	-10.7353
▁Linda	-10.7355
▁MTV	-10.7355
▁abandoned	-10.7355
▁Johnny	-10.7355
▁prime	-10.7355
▁tall	-10.7356
▁reward	-10.7356
▁Helen	-10.7356
▁entry	-10.7357
▁Murray	-10.7357
▁buff	-10.7357
▁meaningless	-10.7358
▁Carlos	-10.7358
▁executed	-10.7358
▁feminist	-10.7359
▁Heart	-10.7361
▁distract	-10.7361
▁WW	-10.7361
▁Lloyd	-10.7361
▁performers	-10.7362
▁Fish	-10.7362
▁pun	-10.7364
▁humanity	-10.7365
▁exploitation	-10.7365
▁humorous	-10.7366
▁Oz	-10.7367
▁superb	-10.7367
col	-10.737
▁Laura	-10.737
▁media	-10.7371
▁wave	-10.7372
▁shape	-10.7372
▁Eric	-10.7375
▁programme	-10.7376
▁Probably	-10.7376
▁Jon	-10.7376
induc	-10.7377
▁ignored	-10.7378
▁RE	-10.7379
▁movement	-10.7381
▁Asian	-10.7384
▁Sim	-10.7384
▁shake	-10.739
▁satisfying	-10.7392
▁End	-10.7392
▁Strange	-10.7393
lar	-10.7402
▁Gore	-10.7402
▁lying	-10.7407
▁burned	-10.7407
▁string	-10.7414
▁received	-10.7416
▁dam	-10.7424
ya	-10.7427
hey	-10.7428
nia	-10.7439
▁castle	-10.7439
▁Oliv	-10.7448
▁nail	-10.745
▁award	-10.745
▁Neil	-10.7452
cut	-10.7452
▁twin	-10.7453
▁Roy	-10.7461
▁tortured	-10.7466
▁Pat	-10.7467
▁ST	-10.7467
▁Arm	-10.7468
▁previews	-10.7473
▁sales	-10.748
▁inane	-10.7494
▁fatal	-10.7497
Ma	-10.7501
Only	-10.7504
▁ME	-10.7511
▁hole	-10.7515
▁Dur	-10.7516
▁nut	-10.7537
▁Scene	-10.7539
Donald	-10.7539
▁insulting	-10.754
▁States	-10.7542
▁spoilers	-10.7546
▁viewed	-10.7554
▁factor	-10.7562
▁comp	-10.7569
THE	-10.7579
▁included	-10.7585
▁cliches	-10.7587
▁Er	-10.7594
▁bath	-10.7599
gue	-10.7603
nny	-10.7632
▁prom	-10.7637
▁cant	-10.7649
▁handed	-10.7688
▁realise	-10.7688
mber	-10.7698
HO	-10.7699
▁mini	-10.77
▁legs	-10.7703
▁Cu	-10.7713
▁Boys	-10.7726
▁theaters	-10.7729
yard	-10.7733
▁killers	-10.7739
nel	-10.7744
▁gri	-10.7755
▁mum	-10.7761
ummy	-10.7761
▁idiots	-10.7772
▁wa	-10.7773
▁kicks	-10.7774
UR	-10.778
▁critic	-10.7796
▁unit	-10.7801
▁MAN	-10.7809
▁Stu	-10.7824
90	-10.7839
▁ear	-10.7841
▁depend	-10.7868
▁scares	-10.7878
3)	-10.7898
itle	-10.79
▁Apart	-10.7901
▁flashback	-10.7909
▁guard	-10.7909
▁puppet	-10.791
▁weapon	-10.7912
▁teens	-10.7914
▁term	-10.7916
▁boot	-10.7925
ments	-10.7964
spect	-10.7967
rig	-10.7979
rch	-10.7982
zo	-10.7991
ski	-10.7999
Di	-10.8013
▁accidental	-10.802
▁terror	-10.8027
ters	-10.804
▁trans	-10.8045
lick	-10.8048
ov	-10.8058
▁cars	-10.8079
▁rat	-10.808
▁rep	-10.8083
story	-10.8086
hose	-10.8093
▁REAL	-10.8101
maker	-10.8103
▁Ice	-10.8124
from	-10.8125
▁corn	-10.8127
town	-10.8127
Even	-10.8129
bound	-10.813
ability	-10.8134
room	-10.8134
▁witness	-10.814
ility	-10.8142
▁thank	-10.8142
▁Str	-10.8144
▁produce	-10.8145
▁wo	-10.8147
▁peace	-10.8148
▁chat	-10.8148
▁ignore	-10.8152
▁slight	-10.8152
▁confuse	-10.8152
▁rooms	-10.8152
▁surprises	-10.8155
nder	-10.816
▁Africa	-10.8163
▁Bur	-10.8165
ups	-10.8166
hold	-10.817
▁Master	-10.8172
jo	-10.8173
magine	-10.8176
▁nation	-10.8176
▁adapt	-10.8177
acted	-10.818
▁radio	-10.8183
@	-10.8183
▁Cahill	-10.8183
▁Carradine	-10.8183
▁Flynn	-10.8183
▁Gibson	-10.8183
▁Shadow	-10.8183
▁throat	-10.8183
▁tragic	-10.8183
*1/2	-10.8183
climactic	-10.8183
corporate	-10.8183
▁Dragon	-10.8183
▁Except	-10.8183
▁HUGE	-10.8183
▁Mexico	-10.8183
▁Ocean	-10.8183
▁Shakespeare	-10.8183
▁Sonja	-10.8183
▁appalling	-10.8183
▁biblical	-10.8183
▁bottle	-10.8183
▁cluck	-10.8183
▁curiosity	-10.8183
▁marriage	-10.8183
▁motorcycle	-10.8183
▁narration	-10.8183
▁neighbor	-10.8183
▁ninja	-10.8183
▁scratch	-10.8183
▁sleaze	-10.8183
▁snakes	-10.8183
▁theatrical	-10.8183
▁ticket	-10.8183
▁unwatchable	-10.8183
▁vomit	-10.8183
▁Austen	-10.8183
▁Troma	-10.8183
▁border	-10.8183
▁dreck	-10.8183
▁frightening	-10.8183
▁spark	-10.8183
▁text	-10.8183
species	-10.8183
▁Jason	-10.8183
▁drill	-10.8183
▁BBC	-10.8183
▁Segal	-10.8183
▁distance	-10.8183
▁Plus	-10.8183
▁trait	-10.8183
▁Lambert	-10.8183
▁heavily	-10.8183
▁summer	-10.8183
▁Jesus	-10.8183
▁Christophe	-10.8183
▁Something	-10.8183
▁quiet	-10.8183
▁sharp	-10.8183
▁Horrible	-10.8183
▁practical	-10.8183
▁NEVER	-10.8183
▁abrupt	-10.8183
▁slaughter	-10.8183
▁cardboard	-10.8183
▁contrast	-10.8183
▁private	-10.8183
▁Think	-10.8183
▁Philip	-10.8183
▁comedies	-10.8183
▁Ireland	-10.8183
▁Tyler	-10.8183
▁blue	-10.8183
▁chain	-10.8183
▁robot	-10.8184
▁Jeff	-10.8184
▁locate	-10.8184
▁department	-10.8184
▁invisible	-10.8184
▁1940	-10.8184
▁wrapped	-10.8184
▁marry	-10.8184
▁benefit	-10.8184
whilst	-10.8184
▁freedom	-10.8184
▁unoriginal	-10.8184
▁moron	-10.8185
▁Walker	-10.8185
▁closing	-10.8186
▁Lady	-10.8186
▁worthwhile	-10.8187
▁creation	-10.8187
▁editor	-10.8188
▁Doug	-10.8188
▁Eddie	-10.8188
▁swear	-10.8189
▁flight	-10.8189
▁lab	-10.819
▁BAD	-10.819
▁Chase	-10.819
cil	-10.8191
▁Matthew	-10.8191
▁significant	-10.8191
▁explode	-10.8191
▁friendship	-10.8191
▁float	-10.8191
▁invite	-10.8191
▁muddled	-10.8192
rmored	-10.8193
▁blend	-10.8193
▁mor	-10.8193
▁Full	-10.8193
▁reject	-10.8193
▁Lane	-10.8193
▁bang	-10.8193
▁depiction	-10.8195
▁Story	-10.8196
▁spoke	-10.8196
▁Camp	-10.8197
▁Chuck	-10.8197
▁wannabe	-10.8198
▁Alan	-10.8199
efore	-10.8199
▁Last	-10.82
Le	-10.8201
▁Sub	-10.8202
▁India	-10.8203
▁Such	-10.8205
▁Over	-10.8206
▁Call	-10.8208
▁MY	-10.8209
▁achieved	-10.8211
▁ancient	-10.8211
▁Basically	-10.8212
▁erotic	-10.8212
▁shouting	-10.8213
▁partner	-10.8214
▁signs	-10.8216
▁Obviously	-10.8217
▁wire	-10.8217
▁Fan	-10.8217
▁blonde	-10.8222
▁Evil	-10.8223
▁Allen	-10.8224
▁Boring	-10.8226
▁suffered	-10.8227
▁hence	-10.8233
▁exposed	-10.8235
▁reel	-10.8235
▁Cole	-10.8237
▁Force	-10.8237
▁nose	-10.8241
▁spoiled	-10.8241
▁wi	-10.8243
coming	-10.8245
inter	-10.8245
▁connected	-10.8245
▁chill	-10.8248
▁resemble	-10.8249
▁mentally	-10.8249
▁absen	-10.8252
rol	-10.8255
▁accepted	-10.8258
▁gain	-10.8261
ani	-10.8262
▁bra	-10.8263
emme	-10.8264
▁ONE	-10.8269
▁delivery	-10.827
▁deserved	-10.8271
▁fooled	-10.8274
▁Need	-10.8274
stan	-10.8275
▁stranger	-10.828
▁examples	-10.8289
▁***	-10.8304
▁ju	-10.8307
▁shocked	-10.8311
▁stealing	-10.8312
▁Art	-10.8323
▁raped	-10.8329
▁listening	-10.8329
▁hanging	-10.834
▁creators	-10.8343
▁gags	-10.8345
▁continual	-10.8362
▁padd	-10.8375
▁cuts	-10.8388
▁growing	-10.8389
▁Nazis	-10.8392
▁$1	-10.8402
▁sha	-10.8409
▁passed	-10.8417
▁Character	-10.8418
▁nine	-10.8428
▁$	-10.8432
"?	-10.8438
▁ears	-10.8441
▁stunts	-10.8442
▁0	-10.8446
▁enthusiast	-10.8446
BO	-10.8457
▁cap	-10.8458
Man	-10.8459
▁guards	-10.8464
still	-10.8482
hould	-10.8483
tain	-10.8498
▁inspiration	-10.8501
▁fla	-10.8502
▁press	-10.8516
▁arrives	-10.855
▁maker	-10.8556
▁Ford	-10.8566
▁IS	-10.8592
▁judg	-10.8608
▁arms	-10.8619
esh	-10.8634
▁disco	-10.8636
key	-10.8648
▁Hoo	-10.8649
▁hir	-10.8649
cid	-10.8652
▁tro	-10.8653
▁Bri	-10.8656
▁ring	-10.8656
atory	-10.8657
▁titles	-10.8667
▁claims	-10.8673
▁San	-10.8673
▁murders	-10.8685
▁Dad	-10.8687
bby	-10.869
▁Ap	-10.8702
▁suffer	-10.8706
▁vs	-10.8708
ates	-10.8709
ene	-10.8715
ching	-10.872
OP	-10.8732
▁14	-10.8772
try	-10.8776
knowledge	-10.8785
▁jobs	-10.8787
▁Rob	-10.8791
▁com	-10.8795
▁Yu	-10.8796
▁continue	-10.8802
▁Phillip	-10.8812
▁cliche	-10.8816
▁stunt	-10.8819
▁tracks	-10.8825
▁disc	-10.8849
▁Base	-10.8852
ILL	-10.8875
▁helping	-10.8876
▁birds	-10.8878
▁Cop	-10.8878
ccording	-10.8882
▁belong	-10.8884
▁25	-10.8885
▁tip	-10.8917
▁hu	-10.8934
▁tea	-10.8942
▁severe	-10.8961
RO	-10.8964
▁fulfill	-10.8972
▁Val	-10.8977
▁annoy	-10.8985
▁Ge	-10.9
▁mud	-10.9001
▁wash	-10.9002
ised	-10.9007
▁assassin	-10.9011
▁types	-10.9012
▁originally	-10.9019
▁cared	-10.9022
appy	-10.9029
field	-10.9032
maybe	-10.9034
video	-10.9034
point	-10.9034
something	-10.9034
girl	-10.9035
Watch	-10.9035
▁relat	-10.9036
war	-10.9037
why	-10.9038
cap	-10.9039
ending	-10.9039
book	-10.904
11	-10.9041
ES	-10.905
abo	-10.9054
▁Final	-10.9055
▁unfortunate	-10.9057
▁achieve	-10.9057
formed	-10.9058
▁easi	-10.9058
▁doom	-10.9059
▁tune	-10.9059
▁Sta	-10.9059
▁Pro	-10.9061
▁occasional	-10.9063
aught	-10.9069
▁wind	-10.9072
ened	-10.9073
▁threat	-10.9078
faced	-10.9082
▁origin	-10.9082
▁stone	-10.9082
▁rush	-10.9086
▁unbelievab	-10.9086
▁arch	-10.9087
▁confront	-10.9089
▁efforts	-10.909
▁Life	-10.9091
▁voices	-10.9091
▁Apparently	-10.9092
▁technique	-10.9092
immigrant	-10.9092
▁Barbara	-10.9092
▁California	-10.9092
▁Capote	-10.9092
▁Carpenter	-10.9092
▁Crawford	-10.9092
▁Incident	-10.9092
▁Jamie	-10.9092
▁Killjoy	-10.9092
▁Kubrick	-10.9092
▁Massacre	-10.9092
▁Stephen	-10.9092
▁Video	-10.9092
▁accus	-10.9092
▁banned	-10.9092
▁bargain	-10.9092
▁chapter	-10.9092
▁circumstances	-10.9092
▁conceived	-10.9092
▁confirm	-10.9092
▁convoluted	-10.9092
▁derivative	-10.9092
▁disgrace	-10.9092
▁guarantee	-10.9092
▁increasing	-10.9092
▁necessarily	-10.9092
▁politics	-10.9092
▁principle	-10.9092
▁recycl	-10.9092
▁reflect	-10.9092
▁rifle	-10.9092
▁tunnel	-10.9092
Brazil	-10.9092
▁Dillon	-10.9092
▁Nelson	-10.9092
▁Year	-10.9092
▁sheriff	-10.9092
▁Harvest	-10.9092
▁Monster	-10.9092
▁announce	-10.9092
▁asteroid	-10.9092
▁chassidi	-10.9092
▁eager	-10.9092
▁interior	-10.9092
▁prior	-10.9092
▁Carrie	-10.9092
▁false	-10.9092
▁homosexual	-10.9092
▁burst	-10.9092
▁broadcast	-10.9092
▁gift	-10.9092
Graduat	-10.9092
▁Salman	-10.9092
▁controversial	-10.9092
▁descent	-10.9092
▁Sometimes	-10.9092
▁inserted	-10.9092
▁basis	-10.9092
▁intense	-10.9092
▁link	-10.9092
▁category	-10.9092
▁disguise	-10.9092
▁transfer	-10.9092
▁Channel	-10.9092
▁SciFi	-10.9092
▁exchange	-10.9092
▁blink	-10.9092
▁Beast	-10.9093
▁outrageous	-10.9093
▁Israel	-10.9093
▁rebel	-10.9093
▁food	-10.9093
▁kidnapper	-10.9093
▁Talk	-10.9093
▁interaction	-10.9093
▁nauseating	-10.9093
▁incest	-10.9093
▁foul	-10.9093
▁inject	-10.9093
▁trade	-10.9094
▁Edgar	-10.9094
▁Cuba	-10.9094
▁coast	-10.9094
▁laser	-10.9094
▁lackluster	-10.9095
▁label	-10.9095
▁Princess	-10.9095
▁proud	-10.9096
▁vanish	-10.9096
▁Father	-10.9096
▁woods	-10.9096
lbei	-10.9096
▁combine	-10.9096
▁nerd	-10.9096
▁3000	-10.9096
▁slick	-10.9096
▁overlook	-10.9097
▁boredom	-10.9097
▁cancel	-10.9097
storm	-10.9097
▁Knight	-10.9097
▁ego	-10.9098
▁elsewhere	-10.9098
▁investigation	-10.9098
▁Beyond	-10.9098
▁ironic	-10.9099
▁wig	-10.9099
▁punk	-10.9099
▁everywhere	-10.91
▁Clark	-10.9101
▁Cool	-10.9101
▁geek	-10.9101
▁Saw	-10.9101
▁attend	-10.9102
▁Sheba	-10.9102
▁moon	-10.9104
▁Miller	-10.9104
▁rack	-10.9106
▁patient	-10.9106
▁Plot	-10.9107
▁Almost	-10.9107
▁debut	-10.9107
▁disturbed	-10.9107
▁Home	-10.9108
▁useful	-10.911
▁shelf	-10.9111
fun	-10.9111
▁outstanding	-10.9112
▁shirt	-10.9112
▁Marion	-10.9113
▁Baby	-10.9114
▁mild	-10.9114
▁Lots	-10.9118
▁established	-10.9121
▁quit	-10.9121
trust	-10.9122
▁Lucy	-10.9122
▁latest	-10.9123
▁SPOILER	-10.9123
▁Plan	-10.9124
▁repeated	-10.9125
gli	-10.9127
▁stumble	-10.9127
▁Young	-10.9128
▁removed	-10.9129
▁Ark	-10.9132
▁Stooges	-10.9133
▁sand	-10.9134
▁Back	-10.9134
▁blown	-10.9135
▁icon	-10.9136
▁corner	-10.9136
▁Louis	-10.9136
▁bus	-10.9139
NCE	-10.914
▁apartment	-10.9141
▁witnessed	-10.9143
▁threatening	-10.9143
▁noise	-10.9145
omi	-10.9146
▁entertained	-10.9148
▁wrestler	-10.9151
▁Land	-10.9151
▁vari	-10.9156
▁Spacey	-10.9157
▁yard	-10.9161
ident	-10.9161
pical	-10.9164
▁deaths	-10.9164
▁flawed	-10.9172
▁West	-10.9174
▁chopp	-10.9175
▁spy	-10.9176
cer	-10.9177
▁lone	-10.9177
▁naturally	-10.9177
▁consum	-10.9177
▁Rose	-10.9178
▁loosely	-10.918
comprehensible	-10.9182
▁sucker	-10.9183
▁endure	-10.9185
▁Top	-10.9186
▁drawing	-10.9186
▁brat	-10.9189
0,000	-10.9196
▁primar	-10.92
▁candy	-10.9202
▁Gues	-10.9206
▁row	-10.9207
▁errors	-10.9214
▁Sch	-10.9215
▁warn	-10.9217
RK	-10.9244
▁tin	-10.9251
▁boil	-10.9263
▁despise	-10.9273
yr	-10.9277
▁importantly	-10.9286
▁clips	-10.9295
ellar	-10.931
▁sock	-10.9311
▁Fl	-10.9318
▁min	-10.9318
▁ador	-10.9333
▁logical	-10.9346
actors	-10.9347
▁winds	-10.9377
▁belongs	-10.9378
▁mal	-10.9378
▁opened	-10.938
going	-10.9383
▁helps	-10.9385
OM	-10.9391
)...	-10.9395
▁Ten	-10.9399
▁ape	-10.9409
▁myth	-10.9428
▁Ju	-10.9431
▁bust	-10.9433
▁LA	-10.9445
▁196	-10.9479
▁conversations	-10.9489
▁colors	-10.949
▁killings	-10.9498
▁Twi	-10.9514
▁expressions	-10.9518
▁Gus	-10.9527
bbing	-10.9537
resumably	-10.9573
▁Lil	-10.9576
▁doll	-10.9582
▁provid	-10.9584
▁gate	-10.9591
wn	-10.9608
▁portrays	-10.9636
ith	-10.9645
anger	-10.965
▁specific	-10.965
ago	-10.9652
▁rocket	-10.9659
rent	-10.9667
▁exceptional	-10.9671
▁Mor	-10.968
▁adding	-10.9686
▁Die	-10.9697
rough	-10.97
Rating	-10.9706
▁fed	-10.971
ature	-10.9715
ique	-10.9738
▁returns	-10.9747
▁caring	-10.9754
cation	-10.9802
▁topic	-10.9807
ella	-10.9821
▁Christ	-10.9822
▁dollar	-10.9822
▁va	-10.9829
▁doctors	-10.9888
▁Days	-10.9888
▁fare	-10.9889
▁slip	-10.9892
30	-10.9907
llo	-10.9912
ENT	-10.9924
elli	-10.9937
brow	-10.9939
▁seduce	-10.994
such	-10.9944
▁millions	-10.9946
▁promo	-10.996
▁woo	-10.9961
round	-10.9972
▁grab	-10.9977
▁Bel	-10.9984
▁chas	-10.9995
US	-11.0004
▁Julie	-11.0009
▁rule	-11.0018
▁study	-11.0027
Alien	-11.0032
dress	-11.0032
claim	-11.0032
Dark	-11.0033
Michael	-11.0033
dramatic	-11.0033
Most	-11.0033
free	-11.0034
motion	-11.0034
demon	-11.0035
class	-11.0036
dding	-11.0037
awful	-11.0038
through	-11.0038
▁investigat	-11.0041
▁Ga	-11.0042
▁unc	-11.0048
put	-11.005
pack	-11.0051
produc	-11.0055
▁surf	-11.0055
Fro	-11.0055
▁trail	-11.0058
ified	-11.0058
www	-11.0062
unless	-11.0063
▁misse	-11.0069
▁invest	-11.0076
▁gym	-11.0079
▁progress	-11.0081
▁dig	-11.0081
▁Ever	-11.0082
eason	-11.0085
▁collect	-11.0086
▁psychologi	-11.0087
▁confess	-11.0088
▁Super	-11.0088
▁famili	-11.0088
assic	-11.0089
peaking	-11.009
▁South	-11.0091
▁multi	-11.0091
PLEASE	-11.0092
–	-11.0092
▁Absolute	-11.0092
▁Adonijah	-11.0092
▁Brynner	-11.0092
▁Clooney	-11.0092
▁HAPP	-11.0092
▁Holocaust	-11.0092
▁Keaton	-11.0092
▁Nightbeast	-11.0092
▁Pistols	-11.0092
▁Raimi	-11.0092
▁Remember	-11.0092
▁Sebastian	-11.0092
▁Sidney	-11.0092
▁Stewart	-11.0092
▁WATCH	-11.0092
▁accompanie	-11.0092
▁casual	-11.0092
▁combination	-11.0092
▁complicated	-11.0092
▁context	-11.0092
▁convenient	-11.0092
▁descend	-11.0092
▁elephant	-11.0092
▁festival	-11.0092
▁gimmick	-11.0092
▁glimpse	-11.0092
▁incompetent	-11.0092
▁jarring	-11.0092
▁knife	-11.0092
▁landscape	-11.0092
▁magazine	-11.0092
▁memories	-11.0092
▁nonsensical	-11.0092
▁obscure	-11.0092
▁profanity	-11.0092
▁psychopath	-11.0092
▁purchase	-11.0092
▁railroad	-11.0092
▁reputation	-11.0092
▁schlock	-11.0092
▁shrink	-11.0092
▁simplistic	-11.0092
▁striking	-11.0092
▁suspicious	-11.0092
▁undoubt	-11.0092
▁worried	-11.0092
▁AIDS	-11.0092
▁courage	-11.0092
▁elderly	-11.0092
▁minimum	-11.0092
▁pleasant	-11.0092
▁respond	-11.0092
▁segment	-11.0092
▁tacky	-11.0092
▁unfold	-11.0092
▁blatant	-11.0092
▁method	-11.0092
▁montage	-11.0092
▁nowadays	-11.0092
▁unexpected	-11.0092
▁welcome	-11.0092
▁zoom	-11.0092
▁Derek	-11.0092
▁Hammer	-11.0092
▁Sleep	-11.0092
▁Vegas	-11.0092
▁stranded	-11.0092
▁crawl	-11.0092
▁ordinary	-11.0092
▁pause	-11.0092
▁warrior	-11.0092
▁WAS	-11.0092
▁inhabit	-11.0092
▁baffl	-11.0092
▁launch	-11.0092
▁tactic	-11.0092
▁DID	-11.0092
▁churn	-11.0092
▁abomination	-11.0092
▁offense	-11.0092
▁Altman	-11.0092
▁Clay	-11.0092
▁Play	-11.0092
▁evident	-11.0092
▁Kelly	-11.0092
▁disconnect	-11.0092
▁Rome	-11.0092
▁devote	-11.0092
▁Stock	-11.0092
▁bumbl	-11.0092
ELL	-11.0092
▁mugg	-11.0092
▁Quaid	-11.0092
▁kiss	-11.0092
▁security	-11.0092
▁Bridge	-11.0092
▁contemporary	-11.0092
▁profit	-11.0092
▁Terrible	-11.0092
▁dubbing	-11.0092
▁transport	-11.0092
▁Thorpe	-11.0092
▁thief	-11.0092
▁kidnapped	-11.0092
▁symbolism	-11.0092
▁Sister	-11.0093
▁cheer	-11.0093
▁Antoni	-11.0093
▁blank	-11.0093
▁sidekick	-11.0093
▁identity	-11.0093
▁Irish	-11.0093
▁cannibal	-11.0093
▁dragged	-11.0093
▁Pitt	-11.0093
▁proceedings	-11.0093
▁measure	-11.0093
▁inventive	-11.0093
▁competent	-11.0093
▁punish	-11.0093
▁buddy	-11.0093
▁Marlow	-11.0093
▁trite	-11.0093
▁combat	-11.0093
▁loving	-11.0094
▁route	-11.0094
▁China	-11.0094
▁wrap	-11.0094
▁Almighty	-11.0094
▁pitch	-11.0094
▁skeleton	-11.0094
▁1/10	-11.0094
▁subtlety	-11.0094
▁Uwe	-11.0094
▁Bobby	-11.0094
ssuming	-11.0094
▁spill	-11.0095
▁unknown	-11.0095
▁Perch	-11.0095
▁universe	-11.0095
▁psychiatri	-11.0095
▁Biblical	-11.0095
▁obnoxious	-11.0095
▁Could	-11.0095
▁Santa	-11.0095
▁captiv	-11.0095
▁hostage	-11.0096
ssembl	-11.0096
▁achievement	-11.0096
▁alter	-11.0096
▁thug	-11.0096
▁Duke	-11.0097
▁Morgan	-11.0097
▁neat	-11.0097
▁antics	-11.0097
▁moronic	-11.0097
stein	-11.0097
▁99	-11.0098
▁16	-11.0098
▁Down	-11.0098
▁cookie	-11.0098
▁pants	-11.0098
▁coffe	-11.0098
▁handsome	-11.0098
▁states	-11.0098
▁laid	-11.0099
▁pool	-11.0099
▁betrayal	-11.0099
▁bump	-11.0099
▁possibility	-11.0099
▁Lena	-11.0099
▁Snow	-11.0099
▁17	-11.0101
▁Crow	-11.0101
▁Colin	-11.0101
▁starred	-11.0101
▁fancy	-11.0101
▁Mencia	-11.0102
▁define	-11.0102
▁Mason	-11.0102
▁tolerate	-11.0102
▁Carol	-11.0102
▁national	-11.0102
▁wedding	-11.0103
▁raw	-11.0104
▁transform	-11.0105
▁enjoyment	-11.0106
▁UP	-11.0107
gnor	-11.0108
▁Death	-11.0108
▁Wait	-11.0108
?!?!	-11.0109
▁Swan	-11.0109
▁fictional	-11.011
glass	-11.011
▁Roll	-11.0113
▁Ross	-11.0114
▁worn	-11.0114
▁Ghost	-11.0114
▁Pick	-11.0115
itch	-11.0115
▁instantly	-11.0117
▁Frost	-11.0117
▁Seven	-11.0119
▁craft	-11.0121
▁photographer	-11.0121
▁coke	-11.0121
▁shaking	-11.0123
▁21	-11.0123
▁qua	-11.0124
▁Meanwhile	-11.0127
now	-11.0129
▁faithful	-11.0129
▁expose	-11.0136
▁bitter	-11.0137
▁quirky	-11.0139
▁commander	-11.0141
Truly	-11.0142
into	-11.0145
▁dire	-11.0149
anche	-11.0163
▁Billy	-11.0165
signed	-11.0167
▁continued	-11.017
ooney	-11.0183
▁spr	-11.0185
sexual	-11.0185
▁kicked	-11.0186
▁slap	-11.0186
▁oil	-11.0187
▁Dove	-11.0187
▁emerg	-11.0188
▁survived	-11.0194
mons	-11.0204
▁crashing	-11.021
REALLY	-11.0212
▁related	-11.0219
▁escapes	-11.0223
▁scripts	-11.0223
▁dated	-11.0229
▁visually	-11.0232
▁pointed	-11.0237
▁sexually	-11.0237
▁bones	-11.0246
▁sal	-11.0247
▁Your	-11.0256
▁fate	-11.0262
▁props	-11.0268
FI	-11.0269
oli	-11.0273
▁rant	-11.0278
ille	-11.0286
▁sports	-11.0288
dle	-11.0293
▁OR	-11.0294
▁carrying	-11.0298
itz	-11.031
(..	-11.0324
▁appealing	-11.0333
▁listed	-11.0334
▁motives	-11.0349
▁explosions	-11.0349
tiny	-11.035
vid	-11.0355
nnie	-11.0363
▁dealers	-11.0367
By	-11.0369
▁rules	-11.0376
actor	-11.0377
▁kinda	-11.0383
▁Cas	-11.0407
▁Sel	-11.0408
▁Phillips	-11.041
bag	-11.041
";	-11.0419
▁resembles	-11.043
asper	-11.0433
▁explaining	-11.0438
▁Seem	-11.0445
▁Ven	-11.0448
▁commenting	-11.0449
▁tears	-11.047
▁thrills	-11.0475
▁Pam	-11.0491
▁Hills	-11.0503
▁BE	-11.0515
▁crimes	-11.0517
▁brave	-11.0518
av	-11.052
▁beating	-11.0528
▁(?)	-11.0529
▁Clo	-11.0547
▁projects	-11.0548
ESS	-11.0555
▁Han	-11.0556
tec	-11.0565
▁faced	-11.0569
cutter	-11.0589
▁cra	-11.0606
▁Col	-11.061
▁levels	-11.0611
▁powers	-11.0612
▁Christin	-11.0628
▁subplots	-11.0628
▁protagonists	-11.0632
▁Var	-11.0632
evel	-11.0632
▁Ca	-11.0636
▁forty	-11.0678
▁fac	-11.0688
▁hal	-11.0708
▁Wor	-11.0713
▁fur	-11.0735
▁SO	-11.0752
▁dud	-11.0753
LA	-11.0755
▁5-	-11.076
▁hol	-11.0763
▁GI	-11.0769
unning	-11.078
sci	-11.0786
8)	-11.0807
worker	-11.0815
▁gangsters	-11.0818
▁194	-11.0822
▁Chic	-11.0825
Step	-11.0871
▁namely	-11.0873
▁ninet	-11.0881
▁continu	-11.0886
▁aid	-11.0888
GE	-11.0895
▁stereotype	-11.0898
****	-11.0903
▁walls	-11.0905
▁lovers	-11.0905
▁prostitute	-11.092
▁explosion	-11.0923
▁motive	-11.0923
▁Los	-11.0929
▁month	-11.0932
▁State	-11.0933
▁Ring	-11.0933
▁parent	-11.0941
▁Nazi	-11.0944
▁choices	-11.0947
▁swa	-11.0947
▁skill	-11.0952
sex	-11.0953
bul	-11.0958
▁Mill	-11.0963
▁spoiler	-11.0968
▁Fi	-11.0986
▁dealer	-11.0994
▁UN	-11.1001
▁Mars	-11.1004
▁wr	-11.1025
only	-11.1027
▁destin	-11.1035
▁mate	-11.1044
hearted	-11.1049
ggy	-11.1078
▁200	-11.1088
▁Pi	-11.1092
▁disappoint	-11.1096
▁edit	-11.1097
ANG	-11.1111
evil	-11.1117
standing	-11.1117
piece	-11.1121
▁Anne	-11.1122
▁escap	-11.1127
Chris	-11.1139
▁satisfy	-11.114
written	-11.1141
Finally	-11.1142
witch	-11.1142
plain	-11.1143
phone	-11.1144
Robert	-11.1144
▁park	-11.1145
worst	-11.1145
minute	-11.1146
ization	-11.1146
Look	-11.1147
scary	-11.1147
▁convention	-11.115
Matt	-11.1152
▁invent	-11.1153
Kill	-11.1153
porn	-11.1154
▁threaten	-11.1157
think	-11.1158
▁Grant	-11.1159
▁haunt	-11.116
series	-11.1162
▁initial	-11.1165
▁definite	-11.1168
show	-11.1179
▁mistakes	-11.1179
▁guilt	-11.1179
▁robber	-11.118
rum	-11.1182
hero	-11.1182
▁generat	-11.1182
▁suspens	-11.1182
▁Whe	-11.119
▁occasion	-11.1193
▁pursu	-11.1199
▁Brad	-11.1202
▁trauma	-11.1202
▁oppos	-11.1202
THING	-11.1203
]	-11.1203
▁Egypt	-11.1203
▁guitar	-11.1203
▁insipid	-11.1203
▁resurrect	-11.1203
Factotum	-11.1203
explosive	-11.1203
werewolf	-11.1203
▁Arabia	-11.1203
▁Bergman	-11.1203
▁Bronson	-11.1203
▁COBRA	-11.1203
▁Canada	-11.1203
▁Central	-11.1203
▁Dahmer	-11.1203
▁Especially	-11.1203
▁Eventually	-11.1203
▁Fulci	-11.1203
▁Garcia	-11.1203
▁Greek	-11.1203
▁Hoffman	-11.1203
▁Internet	-11.1203
▁Leonard	-11.1203
▁Monogram	-11.1203
▁Picture	-11.1203
▁SEAL	-11.1203
▁Sarkar	-11.1203
▁Virgi	-11.1203
▁Zombie	-11.1203
▁alternate	-11.1203
▁alternative	-11.1203
▁artificial	-11.1203
▁caricature	-11.1203
▁cliff	-11.1203
▁clunky	-11.1203
▁coffin	-11.1203
▁conspirac	-11.1203
▁distributor	-11.1203
▁encourage	-11.1203
▁enormous	-11.1203
▁evoke	-11.1203
▁examine	-11.1203
▁explicit	-11.1203
▁frozen	-11.1203
▁garden	-11.1203
▁holiday	-11.1203
▁homage	-11.1203
▁illogical	-11.1203
▁importance	-11.1203
▁infamous	-11.1203
▁interpretation	-11.1203
▁journey	-11.1203
▁mainstream	-11.1203
▁misguided	-11.1203
▁mundane	-11.1203
▁plausible	-11.1203
▁premiere	-11.1203
▁prince	-11.1203
▁principal	-11.1203
▁puke	-11.1203
▁reminiscen	-11.1203
▁scheme	-11.1203
▁shodd	-11.1203
▁skull	-11.1203
▁stilted	-11.1203
▁suspend	-11.1203
▁unappealing	-11.1203
▁veteran	-11.1203
▁wardrobe	-11.1203
Interesting	-11.1203
▁Bukowski	-11.1203
▁CNN	-11.1203
▁Freeman	-11.1203
▁Gothic	-11.1203
▁Kidman	-11.1203
▁Kirk	-11.1203
▁Russell	-11.1203
▁awake	-11.1203
▁credible	-11.1203
▁distinguish	-11.1203
▁firefighter	-11.1203
▁french	-11.1203
▁intrigue	-11.1203
▁smell	-11.1203
▁swallow	-11.1203
▁trivia	-11.1203
▁Firth	-11.1203
▁Jake	-11.1203
▁Owen	-11.1203
▁danton	-11.1203
▁DAYS	-11.1203
▁Price	-11.1203
▁drown	-11.1203
▁Greg	-11.1203
▁Mateo	-11.1203
▁resort	-11.1203
▁minimal	-11.1203
▁strict	-11.1203
▁Khan	-11.1203
▁Martha	-11.1203
▁contestants	-11.1203
▁internet	-11.1203
-13	-11.1203
▁Batman	-11.1203
▁chew	-11.1203
▁banal	-11.1203
▁audio	-11.1203
▁riot	-11.1203
▁sickening	-11.1203
▁Carrey	-11.1203
Number	-11.1203
▁Foot	-11.1203
▁Believe	-11.1203
Canadian	-11.1203
▁spell	-11.1203
spiring	-11.1203
▁Chinaski	-11.1203
▁structure	-11.1203
▁bathroom	-11.1203
▁Water	-11.1203
▁Garfield	-11.1203
▁worry	-11.1203
▁Old	-11.1203
ACK	-11.1203
▁cultural	-11.1203
▁showcase	-11.1203
Silence	-11.1203
▁WORS	-11.1203
Third	-11.1204
▁1990	-11.1204
▁Grey	-11.1204
Major	-11.1204
▁Zeta	-11.1204
▁Redford	-11.1204
▁Jerk	-11.1204
▁Hackman	-11.1204
▁resist	-11.1204
▁unrelated	-11.1204
▁inexplicabl	-11.1204
▁$4	-11.1204
▁hungry	-11.1204
▁urge	-11.1204
▁trend	-11.1204
▁parade	-11.1204
▁hood	-11.1204
▁spread	-11.1204
▁thread	-11.1204
▁Caine	-11.1204
▁criticism	-11.1205
▁swim	-11.1205
▁Harold	-11.1205
▁eighties	-11.1205
▁Micke	-11.1205
▁argument	-11.1205
▁misery	-11.1205
▁Romero	-11.1205
▁underwater	-11.1205
▁Kind	-11.1205
▁STAR	-11.1205
▁bride	-11.1205
▁Carey	-11.1205
▁nonexistent	-11.1205
▁basement	-11.1206
▁Know	-11.1206
▁address	-11.1206
▁Town	-11.1206
▁McCo	-11.1206
▁slightest	-11.1206
▁Leach	-11.1207
▁objective	-11.1207
▁mansion	-11.1207
▁Wilkinson	-11.1207
▁committed	-11.1207
▁Scream	-11.1208
▁Beach	-11.1208
▁gem	-11.1208
▁Jill	-11.1208
▁vast	-11.1208
▁frustrated	-11.1209
▁liberal	-11.1209
▁possession	-11.1209
▁hill	-11.1209
▁jaw	-11.1209
▁ultra	-11.1209
ville	-11.1209
▁Zone	-11.121
▁suspenseful	-11.121
▁carefully	-11.121
▁rubb	-11.121
▁lake	-11.121
▁defend	-11.1211
kill	-11.1211
▁FOR	-11.1211
▁tame	-11.1211
▁await	-11.1213
▁publicity	-11.1213
▁unlikeable	-11.1213
▁bible	-11.1213
▁preacher	-11.1213
▁Franco	-11.1214
▁Lawrence	-11.1214
▁drunken	-11.1214
▁tolerable	-11.1214
▁block	-11.1214
ARD	-11.1215
▁Hour	-11.1216
▁arrested	-11.1217
▁shameless	-11.1217
▁EVER	-11.1219
▁goof	-11.122
▁uneven	-11.122
▁copies	-11.122
▁inspired	-11.1221
▁scarecrow	-11.1221
▁split	-11.1221
annon	-11.1221
▁Iraqi	-11.1222
UD	-11.1223
pm	-11.1223
▁directorial	-11.1225
▁wheel	-11.1225
indulgent	-11.1225
IGHT	-11.1227
▁Kim	-11.1227
▁robbery	-11.1227
▁Dick	-11.1228
▁Angeles	-11.1228
▁Honestly	-11.1228
▁Battle	-11.1228
▁brand	-11.1228
▁Scar	-11.1229
▁handle	-11.123
▁Australian	-11.123
▁partial	-11.123
▁Nation	-11.123
▁Whatever	-11.123
glorious	-11.1231
▁Diana	-11.1233
▁choppy	-11.1233
▁Stay	-11.1234
▁racist	-11.1234
▁fourth	-11.1235
▁Besides	-11.1236
▁inappropriate	-11.1236
▁retarded	-11.1239
▁huh	-11.1241
▁topless	-11.1243
▁Thank	-11.1243
▁clone	-11.1243
▁dresses	-11.1244
▁balance	-11.1244
▁finest	-11.1245
▁/>1.	-11.1246
▁Acting	-11.1247
▁2/10	-11.1248
▁Jan	-11.1249
▁realism	-11.125
▁Dave	-11.1252
▁Head	-11.1252
▁lucky	-11.1256
▁wow	-11.1256
▁pirate	-11.1264
▁Ash	-11.1264
person	-11.1266
▁Hall	-11.1267
▁introduce	-11.1269
impos	-11.1273
▁Ator	-11.1284
▁Marsh	-11.1291
▁bound	-11.1293
▁fu	-11.1294
▁Juliet	-11.1296
▁marketing	-11.1298
▁thrilling	-11.13
▁historically	-11.1301
▁ranch	-11.1301
▁armed	-11.1303
▁Morn	-11.1304
▁tripe	-11.1306
▁flavo	-11.131
▁Finally	-11.131
LOW	-11.1315
▁greatness	-11.1316
▁repeating	-11.1321
▁manager	-11.1322
esque	-11.1322
▁Lion	-11.1323
▁lifeless	-11.1332
▁observ	-11.1333
▁Hero	-11.1334
▁dimensional	-11.1338
▁Gay	-11.1339
▁rolled	-11.134
▁bounc	-11.134
▁Ya	-11.1354
▁bullets	-11.1355
▁Nim	-11.1359
▁heap	-11.1364
ji	-11.1366
▁dub	-11.1374
▁guts	-11.1389
▁lips	-11.1389
▁Nav	-11.1403
▁charming	-11.1405
▁finale	-11.141
▁noir	-11.141
▁hunter	-11.1412
▁shi	-11.1418
▁contribut	-11.1423
▁Simpsons	-11.1423
▁Hot	-11.1425
▁legal	-11.1435
▁vers	-11.1439
▁Air	-11.144
▁seeking	-11.145
ulous	-11.1452
▁proceeds	-11.1458
cast	-11.146
▁dust	-11.1467
▁rot	-11.1467
▁HO	-11.1472
▁concentrate	-11.1473
iva	-11.1475
mmed	-11.1484
▁experienced	-11.1488
India	-11.1498
▁recit	-11.1504
etro	-11.1507
ril	-11.152
▁Jud	-11.1522
▁topics	-11.1528
40	-11.153
immer	-11.1542
OWN	-11.1553
▁tool	-11.1563
▁magical	-11.157
Mis	-11.1572
▁sel	-11.1579
▁passe	-11.1593
▁jumping	-11.1598
mail	-11.1603
▁admir	-11.1606
▁hall	-11.1607
oid	-11.1619
▁awards	-11.1631
veral	-11.1635
gun	-11.1636
▁popp	-11.164
▁arc	-11.1649
tograph	-11.165
▁pot	-11.1675
mato	-11.1694
ARE	-11.1701
last	-11.1702
▁Bal	-11.1712
uge	-11.1716
▁cameos	-11.1716
ocketship	-11.172
Sh	-11.173
take	-11.173
mission	-11.1739
▁judges	-11.1758
wai	-11.1768
▁Sad	-11.1768
cue	-11.1771
▁nicely	-11.1788
▁Patric	-11.1814
▁Bell	-11.1815
vic	-11.1829
▁spots	-11.1835
▁Wha	-11.1836
▁fighter	-11.184
▁Gal	-11.1844
▁Wors	-11.1849
wan	-11.1862
▁Hi	-11.1867
▁Oscars	-11.1879
▁king	-11.1893
▁insist	-11.1922
▁ev	-11.1931
King	-11.1956
minded	-11.1969
IG	-11.1975
Of	-11.1977
▁pale	-11.1991
shes	-11.1992
▁pat	-11.1999
▁admire	-11.2014
ika	-11.2036
alo	-11.2039
▁comfortabl	-11.2073
Th	-11.2109
father	-11.2125
▁temp	-11.2154
▁Nati	-11.2164
▁proceed	-11.217
olice	-11.2174
▁clip	-11.2177
ouch	-11.2186
▁surreal	-11.219
cher	-11.2213
▁Lie	-11.2225
uster	-11.2239
▁employ	-11.2254
▁receiv	-11.2277
lude	-11.229
ould	-11.2294
ounce	-11.2302
struct	-11.2306
bie	-11.2336
IR	-11.2346
▁squa	-11.2359
▁Nin	-11.2364
▁rever	-11.2367
world	-11.238
water	-11.2392
Evil	-11.2392
soldier	-11.2393
Second	-11.2393
Movie	-11.2394
Blood	-11.2394
spot	-11.2394
intelligent	-11.2394
Jones	-11.2394
strong	-11.2394
weight	-11.2394
black	-11.2395
wife	-11.2395
Star	-11.2395
happy	-11.2398
bile	-11.2399
Joe	-11.2402
Night	-11.2402
Still	-11.2405
found	-11.2407
▁limit	-11.2407
▁pad	-11.2414
▁si	-11.2418
OUR	-11.2419
wolves	-11.2424
▁greed	-11.2429
▁opportunit	-11.2429
▁remove	-11.2431
▁stole	-11.2435
new	-11.2439
▁insight	-11.244
▁sentiment	-11.2444
▁dimension	-11.2444
▁betray	-11.2444
Here	-11.2445
ternational	-11.2445
▁quest	-11.2449
neath	-11.245
▁Jordan	-11.2451
▁victor	-11.2452
apocalyp	-11.2452
evolution	-11.2452
▁obligat	-11.2453
▁Elizabeth	-11.2453
▁Joseph	-11.2453
▁Storm	-11.2453
▁colleague	-11.2453
▁custom	-11.2453
▁inconsistent	-11.2453
▁jewel	-11.2453
▁phony	-11.2453
Dudikoff	-11.2453
traffic	-11.2453
▁Afghanistan	-11.2453
▁Bollywood	-11.2453
▁Century	-11.2453
▁England	-11.2453
▁Everybody	-11.2453
▁Exorcis	-11.2453
▁Floyd	-11.2453
▁Hallmark	-11.2453
▁Hyde	-11.2453
▁Lillith	-11.2453
▁Mitchell	-11.2453
▁RGV	-11.2453
▁Ricci	-11.2453
▁Savannah	-11.2453
▁Triangle	-11.2453
▁album	-11.2453
▁assault	-11.2453
▁backdrop	-11.2453
▁bikini	-11.2453
▁caliber	-11.2453
▁celebrit	-11.2453
▁circle	-11.2453
▁clumsy	-11.2453
▁coincidence	-11.2453
▁communication	-11.2453
▁condition	-11.2453
▁embarrassment	-11.2453
▁ensues	-11.2453
▁executive	-11.2453
▁horrifying	-11.2453
▁illegal	-11.2453
▁illustrat	-11.2453
▁inaccurate	-11.2453
▁neurotic	-11.2453
▁nightclub	-11.2453
▁passengers	-11.2453
▁pearls	-11.2453
▁population	-11.2453
▁spectrum	-11.2453
▁thieves	-11.2453
▁thirty	-11.2453
▁tremendous	-11.2453
▁trilogy	-11.2453
▁underground	-11.2453
▁unpleasant	-11.2453
▁unsatisfying	-11.2453
▁vigilante	-11.2453
▁virgin	-11.2453
▁virus	-11.2453
▁website	-11.2453
▁widow	-11.2453
▁yadda	-11.2453
▁1/2	-11.2453
▁1972	-11.2453
▁Behind	-11.2453
▁Clampett	-11.2453
▁Damme	-11.2453
▁deputy	-11.2453
▁devastat	-11.2453
▁disagree	-11.2453
▁frankly	-11.2453
▁recruit	-11.2453
▁strike	-11.2453
▁venture	-11.2453
brilliance	-11.2453
▁/>4/10	-11.2453
▁Indeed	-11.2453
▁destruction	-11.2453
▁drain	-11.2453
▁drove	-11.2453
▁edgy	-11.2453
▁fraud	-11.2453
▁official	-11.2453
▁plug	-11.2453
▁WWII	-11.2453
▁Woman	-11.2453
▁afternoon	-11.2453
▁tackle	-11.2453
▁spawn	-11.2453
▁Tyree	-11.2453
Bottom	-11.2453
▁Damon	-11.2453
▁steam	-11.2453
▁Wanda	-11.2453
▁digital	-11.2453
▁firm	-11.2453
▁Turner	-11.2453
▁gloss	-11.2453
▁pray	-11.2453
▁resume	-11.2453
▁sweat	-11.2453
▁rational	-11.2453
OTHER	-11.2453
▁radioactive	-11.2453
▁dispos	-11.2453
▁lord	-11.2453
▁adopt	-11.2453
▁Univers	-11.2453
▁woeful	-11.2453
▁afford	-11.2453
thirst	-11.2453
▁quasi	-11.2453
▁weather	-11.2453
▁filth	-11.2453
▁vacation	-11.2453
smoking	-11.2453
▁informative	-11.2453
▁Lovecraft	-11.2453
▁downfall	-11.2453
▁Through	-11.2453
▁grainy	-11.2453
▁declare	-11.2453
▁ambi	-11.2453
▁School	-11.2453
▁aircraft	-11.2453
▁Hurt	-11.2453
▁Fiction	-11.2453
▁Thankfully	-11.2453
▁confusion	-11.2453
▁Kathy	-11.2453
▁vivid	-11.2453
▁calm	-11.2453
▁Jackass	-11.2454
▁stalk	-11.2454
▁facial	-11.2454
khan	-11.2454
▁trace	-11.2454
▁imaginable	-11.2454
▁dominate	-11.2454
▁2007	-11.2454
▁genetic	-11.2454
▁smash	-11.2454
▁path	-11.2454
▁vicious	-11.2454
▁100%	-11.2454
▁chunk	-11.2454
▁grasp	-11.2454
▁attach	-11.2454
▁spook	-11.2454
▁1930	-11.2454
▁unbearable	-11.2454
▁psychic	-11.2454
▁Eyes	-11.2455
mistress	-11.2455
▁Linne	-11.2455
▁cloud	-11.2455
▁Theater	-11.2455
▁Denn	-11.2455
▁Planet	-11.2455
▁translation	-11.2455
▁Showtime	-11.2455
▁harmless	-11.2455
▁decline	-11.2455
DAY	-11.2456
▁East	-11.2456
▁lens	-11.2456
▁similarities	-11.2456
▁Shame	-11.2456
▁Michelle	-11.2456
▁hunk	-11.2456
▁scriptwriter	-11.2456
▁uncle	-11.2456
▁static	-11.2456
▁Candy	-11.2457
▁hung	-11.2457
▁survival	-11.2457
▁grind	-11.2457
▁thick	-11.2457
▁wack	-11.2458
▁Bush	-11.2458
▁countryside	-11.2458
▁cents	-11.2458
▁hideous	-11.2458
▁Harry	-11.2459
▁foolish	-11.2459
ugby	-11.2459
▁Emil	-11.2459
udge	-11.246
mination	-11.246
▁Hind	-11.246
▁brick	-11.246
▁Korean	-11.2461
ROM	-11.2461
▁slave	-11.2462
▁nearby	-11.2462
▁FX	-11.2463
▁Terr	-11.2463
▁cabin	-11.2463
▁DON	-11.2464
▁Rita	-11.2464
Jaws	-11.2465
▁winter	-11.2465
▁tire	-11.2465
▁blast	-11.2465
▁Personally	-11.2465
▁pathetically	-11.2466
▁sail	-11.2466
▁Return	-11.2466
▁Italy	-11.2466
▁Robo	-11.2466
▁Street	-11.2468
▁bias	-11.2469
▁Ku	-11.2469
▁affection	-11.247
▁Lang	-11.247
▁sideline	-11.2471
▁bubble	-11.2473
Eye	-11.2473
▁Austin	-11.2474
▁phrase	-11.2474
▁Club	-11.2474
▁policeman	-11.2474
▁Code	-11.2474
▁Direct	-11.2475
▁Gate	-11.2475
voting	-11.2475
je	-11.2475
Wor	-11.2475
!!!!!!	-11.2476
▁campus	-11.2476
▁=	-11.2476
▁everyday	-11.2476
▁bigot	-11.2477
Turn	-11.2477
▁Johnson	-11.2478
▁Road	-11.2478
lend	-11.2479
▁cock	-11.2479
▁dumbest	-11.248
▁meander	-11.2481
▁worship	-11.2482
▁cup	-11.2482
▁wage	-11.2482
▁Fine	-11.2483
▁ranger	-11.2484
▁tribe	-11.2485
▁recommendation	-11.2488
▁mill	-11.2488
▁busy	-11.2489
▁milk	-11.249
▁Hellraiser	-11.249
▁cheek	-11.249
▁exit	-11.2492
▁Pep	-11.2493
▁sec	-11.2494
▁photographed	-11.2494
▁Army	-11.2495
▁beast	-11.2496
▁tense	-11.2497
fanatic	-11.2497
▁stoned	-11.2498
▁Andrew	-11.2498
▁improve	-11.2501
▁arrogant	-11.2503
eyed	-11.2504
▁lonely	-11.2505
▁III	-11.2506
▁fortune	-11.2507
▁factory	-11.2509
▁Dear	-11.2509
▁Nick	-11.251
▁desired	-11.2511
earned	-11.2515
Bride	-11.2516
▁101	-11.252
▁select	-11.252
▁needless	-11.2522
▁setup	-11.2525
etti	-11.2526
Normal	-11.2526
▁improved	-11.2526
▁outset	-11.2529
▁cutting	-11.2529
▁Granted	-11.2536
▁stupidest	-11.2538
▁mistaken	-11.254
▁disappeared	-11.254
▁conclude	-11.2541
▁Histor	-11.2542
▁counter	-11.2549
▁outright	-11.2551
hl	-11.2556
▁distracting	-11.2558
▁upper	-11.2559
▁Say	-11.256
▁feed	-11.2563
▁Soon	-11.2563
▁users	-11.257
▁referr	-11.2573
▁Anna	-11.2576
polar	-11.2582
▁Kai	-11.2584
gage	-11.2584
yet	-11.2585
▁Brothers	-11.2588
▁survivors	-11.2588
▁dumber	-11.2597
▁swing	-11.2597
▁staged	-11.2598
Cherry	-11.2598
▁Welles	-11.2604
▁returned	-11.2607
▁Victoria	-11.2609
▁Lost	-11.2609
warm	-11.2612
▁2"	-11.2616
▁failing	-11.2618
▁stated	-11.2624
Tom	-11.2626
▁Burns	-11.2628
7)	-11.2629
evy	-11.2629
▁format	-11.2633
▁mus	-11.2636
▁designer	-11.2637
River	-11.2648
▁overuse	-11.265
-20	-11.2655
▁forbidd	-11.2655
▁IQ	-11.2657
▁chased	-11.2662
▁painting	-11.2665
ough	-11.268
▁fired	-11.2686
▁aired	-11.2697
▁comb	-11.271
▁LO	-11.272
▁tempt	-11.2721
▁Ph	-11.2724
▁prob	-11.2724
▁coat	-11.2744
98	-11.2748
▁intentional	-11.2756
▁cake	-11.2762
▁(199	-11.2772
▁degrad	-11.2778
▁prostitutes	-11.2784
▁commented	-11.279
▁MU	-11.2802
Mak	-11.2804
dian	-11.2805
▁goodness	-11.2831
▁badness	-11.2832
goer	-11.2835
▁substitute	-11.2846
rick	-11.2864
▁Ze	-11.2866
▁mins	-11.2892
▁Ric	-11.2898
▁west	-11.2899
zed	-11.2904
▁Gr	-11.2909
▁completed	-11.292
▁Bor	-11.2931
▁settle	-11.295
▁dealt	-11.2956
lip	-11.2958
▁jet	-11.296
▁disappears	-11.2971
ipped	-11.2972
▁Yo	-11.2981
▁Ham	-11.2999
inning	-11.3026
▁Gene	-11.3112
▁slum	-11.3122
▁Mag	-11.3129
▁hum	-11.3143
▁explore	-11.3169
▁mon	-11.3192
▁bob	-11.3203
▁inform	-11.3214
hart	-11.3227
aki	-11.3228
▁(!)	-11.3233
*****	-11.3241
aves	-11.3271
▁Dal	-11.3299
▁Pare	-11.3318
▁rac	-11.3325
▁Unc	-11.3351
▁settl	-11.3365
Dr	-11.3369
NG	-11.3377
▁believ	-11.3391
▁Nig	-11.3427
ahl	-11.3436
▁$5	-11.3454
ood	-11.3501
graphy	-11.3517
▁ver	-11.353
▁figur	-11.3534
headed	-11.3555
ega	-11.358
DY	-11.3587
▁gag	-11.3597
▁Simpson	-11.36
▁breast	-11.3606
▁sport	-11.3609
▁compar	-11.3613
▁creator	-11.3618
▁blur	-11.3632
▁Sla	-11.3658
addle	-11.366
▁Unlik	-11.367
▁improv	-11.37
▁Kar	-11.3705
orrow	-11.371
servant	-11.3711
nything	-11.3717
▁expos	-11.3722
horny	-11.3732
tanic	-11.3735
gree	-11.3752
▁refer	-11.3758
sided	-11.376
▁SH	-11.3767
▁photograph	-11.3768
lapping	-11.3771
▁disgust	-11.3772
CIA	-11.3774
▁authentic	-11.378
most	-11.3786
▁Pie	-11.3798
know	-11.3808
▁refuge	-11.3809
ody	-11.3811
SPOILER	-11.3814
▁blond	-11.3814
▁complet	-11.3815
comfortabl	-11.3819
fortune	-11.382
Obviously	-11.3821
word	-11.3822
quit	-11.3822
foot	-11.3822
Sadly	-11.3822
correct	-11.3822
adventure	-11.3822
▁possess	-11.3822
Please	-11.3822
Love	-11.3823
Come	-11.3823
thriller	-11.3823
white	-11.3823
actually	-11.3823
holes	-11.3824
poor	-11.3824
Sorry	-11.3824
scene	-11.3826
sorry	-11.3828
box	-11.3829
instead	-11.383
check	-11.383
▁impress	-11.3831
▁identi	-11.3833
master	-11.3834
Who	-11.3834
▁establish	-11.3835
wow	-11.3838
known	-11.3841
▁capital	-11.3843
▁adequate	-11.3844
avan	-11.3845
▁instant	-11.3847
either	-11.3847
oops	-11.3849
▁Lor	-11.385
▁prepare	-11.3851
▁jealous	-11.3856
▁dirt	-11.3858
Bill	-11.3859
both	-11.386
▁Australia	-11.386
orious	-11.3862
▁cam	-11.3866
▁engine	-11.3867
▁Cap	-11.3869
ookie	-11.3869
▁Law	-11.3872
producer	-11.3873
▁preach	-11.3876
▁imagina	-11.3878
IVE	-11.3878
annibal	-11.388
cript	-11.388
▁tech	-11.388
ecommended	-11.3881
itude	-11.3881
▁Turk	-11.3881
Chappelle	-11.3881
▁Hamilton	-11.3881
Kristin	-11.3881
Predator	-11.3881
▁1981	-11.3881
▁9/11	-11.3881
▁Alucard	-11.3881
▁Certainly	-11.3881
▁Curtis	-11.3881
▁DEAD	-11.3881
▁Diamond	-11.3881
▁Fortunately	-11.3881
▁Henriksen	-11.3881
▁Jonathan	-11.3881
▁Nickelodeon	-11.3881
▁Soviet	-11.3881
▁Vaughn	-11.3881
▁Writer	-11.3881
▁YouTube	-11.3881
▁advertising	-11.3881
▁antagonist	-11.3881
▁atmospheric	-11.3881
▁camcorder	-11.3881
▁consequences	-11.3881
▁cruci	-11.3881
▁cynical	-11.3881
▁dynamite	-11.3881
▁econom	-11.3881
▁elaborate	-11.3881
▁frustrating	-11.3881
▁frustration	-11.3881
▁gorgeous	-11.3881
▁gorilla	-11.3881
▁gravity	-11.3881
▁inevitable	-11.3881
▁innovative	-11.3881
▁insurgents	-11.3881
▁irritate	-11.3881
▁juvenile	-11.3881
▁legitimate	-11.3881
▁license	-11.3881
▁mechanical	-11.3881
▁medieval	-11.3881
▁mirror	-11.3881
▁narrator	-11.3881
▁obsessi	-11.3881
▁ourselves	-11.3881
▁patience	-11.3881
▁perspective	-11.3881
▁persuade	-11.3881
▁pregnant	-11.3881
▁ridicule	-11.3881
▁significance	-11.3881
▁smooth	-11.3881
▁squeeze	-11.3881
▁storytelling	-11.3881
▁stylish	-11.3881
▁travesty	-11.3881
▁unnatural	-11.3881
▁untalented	-11.3881
▁whereabouts	-11.3881
▁yesterday	-11.3881
▁Argento	-11.3881
▁Bulgaria	-11.3881
▁Govinda	-11.3881
▁Hector	-11.3881
▁Hubert	-11.3881
▁LTL	-11.3881
▁Lambs	-11.3881
▁Leonora	-11.3881
▁Levinson	-11.3881
▁McLaren	-11.3881
▁Milligan	-11.3881
▁NASA	-11.3881
▁POW	-11.3881
▁Quentin	-11.3881
▁Spaghetti	-11.3881
▁Spielberg	-11.3881
▁Sunday	-11.3881
▁WITH	-11.3881
▁acquir	-11.3881
▁concert	-11.3881
▁drift	-11.3881
▁education	-11.3881
▁exotic	-11.3881
▁fiancé	-11.3881
▁giggl	-11.3881
▁grotesque	-11.3881
▁hokey	-11.3881
▁mediocrity	-11.3881
▁nominated	-11.3881
▁parallel	-11.3881
▁qualify	-11.3881
▁religion	-11.3881
▁serving	-11.3881
▁simulat	-11.3881
▁squirm	-11.3881
▁subsequent	-11.3881
í	-11.3881
▁Hughes	-11.3881
▁Machine	-11.3881
▁Snider	-11.3881
▁babies	-11.3881
▁compromis	-11.3881
▁demise	-11.3881
▁fodder	-11.3881
▁harass	-11.3881
▁insanity	-11.3881
▁ocean	-11.3881
▁sustain	-11.3881
▁Classic	-11.3881
▁Foster	-11.3881
▁Gerda	-11.3881
▁Slayer	-11.3881
▁dreary	-11.3881
▁guide	-11.3881
▁commentator	-11.3881
Raymond	-11.3881
▁/>3/10	-11.3881
▁Drake	-11.3881
▁Pryor	-11.3881
▁honor	-11.3881
▁maniac	-11.3881
▁Jeffrey	-11.3881
▁garage	-11.3881
▁gentle	-11.3881
▁glorifi	-11.3881
▁visible	-11.3881
▁Scout	-11.3881
▁pervert	-11.3881
▁Republicans	-11.3881
▁limitations	-11.3881
▁south	-11.3881
▁stomp	-11.3881
▁Dallas	-11.3881
▁glaring	-11.3881
▁ABC	-11.3881
▁extensi	-11.3881
▁region	-11.3881
▁turd	-11.3881
▁Weird	-11.3881
▁lookalike	-11.3881
provoking	-11.3882
▁infect	-11.3882
▁loyal	-11.3882
▁medium	-11.3882
▁volume	-11.3882
▁Busey	-11.3882
▁Hayes	-11.3882
▁convert	-11.3882
▁Martel	-11.3882
▁babes	-11.3882
▁Sanders	-11.3882
▁inherit	-11.3882
▁inconsistencies	-11.3882
▁shelter	-11.3882
▁nightmare	-11.3882
▁Silver	-11.3882
▁centre	-11.3882
WHY	-11.3882
historic	-11.3882
▁Britain	-11.3882
▁captain	-11.3882
▁claustrophobic	-11.3882
▁prize	-11.3882
▁chore	-11.3882
▁Langdon	-11.3882
▁ghastly	-11.3882
▁defeat	-11.3882
▁overdone	-11.3882
▁backwards	-11.3882
▁sketch	-11.3882
▁slapped	-11.3882
▁yawn	-11.3882
▁nerve	-11.3882
▁overacts	-11.3882
://	-11.3882
▁nick	-11.3882
▁thankfully	-11.3882
▁Jerem	-11.3882
▁tiresome	-11.3882
▁Tune	-11.3882
▁coherent	-11.3882
▁Graves	-11.3882
Stranded	-11.3882
▁rotten	-11.3882
▁Dawn	-11.3882
▁steer	-11.3882
Crime	-11.3882
▁Combs	-11.3883
▁Short	-11.3883
▁Green	-11.3883
▁Compare	-11.3883
▁Extra	-11.3883
▁Definitely	-11.3883
▁torment	-11.3883
▁chair	-11.3883
▁broad	-11.3883
▁option	-11.3883
▁Jewish	-11.3883
▁Berlin	-11.3883
▁mutant	-11.3883
▁tele	-11.3883
ODC	-11.3883
▁devil	-11.3883
▁punishment	-11.3883
▁wimp	-11.3883
▁resemblance	-11.3883
▁2001	-11.3883
▁macho	-11.3883
▁Barker	-11.3883
▁promotion	-11.3883
▁Cleef	-11.3884
▁Duval	-11.3884
▁romp	-11.3884
▁Jewel	-11.3884
▁Driver	-11.3884
▁missile	-11.3884
▁weekend	-11.3884
▁leap	-11.3884
▁progressive	-11.3884
▁culminat	-11.3884
▁featurette	-11.3884
▁personalities	-11.3884
▁rewrite	-11.3884
▁info	-11.3884
▁snack	-11.3884
▁patriot	-11.3884
▁riddle	-11.3884
▁hatred	-11.3884
▁countries	-11.3884
▁practice	-11.3884
▁underneath	-11.3884
▁gunfight	-11.3885
▁eight	-11.3885
▁dorm	-11.3885
▁HBO	-11.3885
▁waist	-11.3885
▁miracle	-11.3885
▁Lovers	-11.3885
▁liking	-11.3886
▁mature	-11.3886
▁Latin	-11.3886
▁sky	-11.3886
▁bond	-11.3886
▁nostalgia	-11.3886
▁hipp	-11.3886
▁pornography	-11.3887
▁ripoff	-11.3887
▁Duvivier	-11.3887
▁Cosgrove	-11.3887
▁pipe	-11.3887
▁Portuguese	-11.3887
▁Wynorski	-11.3887
▁creativity	-11.3887
▁hopefully	-11.3887
Porno	-11.3887
▁addict	-11.3887
▁confession	-11.3887
▁vol	-11.3887
▁Jung	-11.3887
▁proof	-11.3887
▁snowman	-11.3888
▁slim	-11.3888
▁representation	-11.3888
Hara	-11.3888
▁psychologist	-11.3888
▁Davies	-11.3889
▁mold	-11.3889
▁pound	-11.3889
▁diner	-11.3889
▁minority	-11.389
▁stopping	-11.389
▁Corman	-11.389
▁replacement	-11.389
▁fangs	-11.389
▁Darkness	-11.3892
▁behave	-11.3892
▁Four	-11.3892
atomic	-11.3892
▁function	-11.3892
▁liar	-11.3892
▁Asia	-11.3893
▁Long	-11.3893
▁Better	-11.3893
▁formulaic	-11.3893
▁bearable	-11.3894
▁Karl	-11.3895
▁labor	-11.3895
▁Hayd	-11.3895
▁Bates	-11.3895
blow	-11.3896
▁shine	-11.3896
▁sold	-11.3896
▁obsessed	-11.3896
▁Lynn	-11.3896
▁sophisticated	-11.3896
▁Daniel	-11.3896
▁Blair	-11.3896
▁Elm	-11.3896
▁shadow	-11.3897
▁2006	-11.3897
▁clueless	-11.3897
▁Pink	-11.3897
▁Conan	-11.3897
▁Actor	-11.3897
▁lion	-11.3898
▁invade	-11.3898
▁masses	-11.3899
▁pig	-11.39
▁Deni	-11.39
▁lifestyle	-11.3901
▁Bette	-11.3901
Furthermore	-11.3901
stage	-11.3901
▁Deep	-11.3901
▁happily	-11.3902
▁distinctly	-11.3902
▁showdown	-11.3902
▁demonic	-11.3902
▁childish	-11.3902
▁irony	-11.3902
▁Trust	-11.3904
▁chip	-11.3904
▁helpful	-11.3904
▁crashes	-11.3905
▁caper	-11.3905
▁bitten	-11.3906
▁Hollow	-11.3906
olph	-11.3907
▁Jost	-11.3907
▁duo	-11.3907
▁increase	-11.3907
▁dropping	-11.3907
▁Port	-11.3907
▁hitch	-11.3909
▁Alice	-11.3911
naught	-11.3911
▁frequently	-11.3913
▁Alas	-11.3913
▁accomplished	-11.3915
▁crushed	-11.3915
▁satisfied	-11.3915
▁darkness	-11.3916
▁cris	-11.3917
Jur	-11.3918
▁squad	-11.3919
conscious	-11.3919
▁FF	-11.3921
▁Phil	-11.3921
▁Kate	-11.3922
▁sexist	-11.3922
▁cheated	-11.3922
aunch	-11.3924
IST	-11.3926
▁colorful	-11.3926
▁inventor	-11.3926
▁Up	-11.3928
▁disgusted	-11.393
▁revi	-11.393
▁rope	-11.393
▁reck	-11.393
▁/>2.	-11.3931
▁thoughtful	-11.3932
▁handled	-11.3933
▁Human	-11.3933
▁Consider	-11.3934
▁Myster	-11.3935
▁overwhelming	-11.3937
▁cheating	-11.3937
▁Real	-11.3937
ICE	-11.3939
troops	-11.394
▁dancer	-11.394
▁disliked	-11.3944
▁severely	-11.3944
▁invented	-11.3944
▁/>3.	-11.3946
▁Joel	-11.3946
▁understandable	-11.3946
▁explored	-11.3946
▁Later	-11.3948
▁Gun	-11.395
▁Tale	-11.3951
▁Cold	-11.3951
▁*****	-11.3954
▁heroin	-11.3956
▁Hardy	-11.3957
▁fifty	-11.3959
▁Surely	-11.3959
▁frontal	-11.396
ural	-11.3961
▁Within	-11.3963
▁Sean	-11.3963
ONE	-11.3966
▁Rocky	-11.3967
rray	-11.397
anni	-11.3972
etwork	-11.3975
▁studying	-11.3977
toxic	-11.3977
▁Mont	-11.3978
▁billed	-11.3982
▁wounded	-11.3989
▁snapp	-11.3991
urban	-11.3992
anne	-11.3992
▁bush	-11.3994
▁stretched	-11.3996
▁Q	-11.3996
▁Save	-11.4001
▁ranting	-11.4005
▁hooker	-11.4006
▁Bern	-11.4007
phy	-11.401
thless	-11.4014
▁Hand	-11.4017
▁rain	-11.4021
▁reverse	-11.4023
▁criticize	-11.4027
▁Burt	-11.4028
▁claimed	-11.403
▁wine	-11.4033
Broke	-11.4033
▁horn	-11.4034
nett	-11.4044
▁complaining	-11.4048
▁convincingly	-11.4058
liced	-11.4076
attered	-11.4078
KE	-11.4079
▁Must	-11.4085
▁Lou	-11.4099
DU	-11.4104
▁promote	-11.4104
▁repress	-11.4106
stood	-11.4108
▁boarding	-11.411
▁Fle	-11.411
▁grating	-11.4115
acabr	-11.4121
▁whoever	-11.4123
▁gen	-11.4137
▁uniform	-11.414
▁escaped	-11.4149
▁terroriz	-11.416
▁Spi	-11.4167
5%	-11.4172
?????	-11.4175
▁Bon	-11.4176
WO	-11.4185
▁bitch	-11.4187
orbid	-11.4195
36	-11.4199
▁respected	-11.4213
▁193	-11.425
ridden	-11.4254
▁beard	-11.4279
▁Jur	-11.4281
▁pose	-11.4293
lways	-11.4297
TER	-11.4298
▁Ker	-11.4301
manda	-11.4304
aka	-11.4318
▁commenter	-11.4322
loria	-11.4328
ronic	-11.4337
hav	-11.4339
▁Pan	-11.434
ssassination	-11.4357
did	-11.4371
▁Baron	-11.4374
▁preferr	-11.4378
licate	-11.4394
▁Dumb	-11.4402
once	-11.4412
▁mut	-11.4416
cloth	-11.4418
duty	-11.4426
ulent	-11.4428
▁Wallac	-11.4433
▁Gh	-11.4438
uddy	-11.4443
▁ants	-11.4452
▁quarter	-11.4459
▁dat	-11.4469
▁Core	-11.447
eets	-11.4471
▁incapa	-11.4475
UL	-11.4479
atroni	-11.4486
cine	-11.4495
▁grim	-11.45
Blu	-11.4505
HR	-11.4511
▁remark	-11.4522
2"	-11.4528
panic	-11.4546
OUT	-11.4559
▁gap	-11.4584
▁litera	-11.459
46	-11.4623
▁Mid	-11.4636
llows	-11.4637
▁verg	-11.464
▁skipp	-11.4646
finitely	-11.4651
ERE	-11.4666
▁span	-11.4671
unny	-11.4689
Bar	-11.4693
▁cram	-11.4694
wal	-11.4697
rip	-11.4726
▁Roman	-11.4738
▁revolv	-11.4773
▁2000	-11.479
▁bug	-11.4805
TH	-11.4807
▁bla	-11.482
▁prop	-11.485
▁Trac	-11.4851
▁plac	-11.4881
▁exp	-11.4884
▁tan	-11.489
▁clo	-11.4895
rock	-11.4918
▁operati	-11.4919
otte	-11.4952
25	-11.4971
▁Act	-11.4987
▁JU	-11.5007
▁24	-11.5025
change	-11.5036
ambo	-11.5097
▁equ	-11.5107
!!!!!	-11.5108
uel	-11.5113
▁WE	-11.5114
▁Fair	-11.5131
▁Run	-11.5141
▁grip	-11.516
tube	-11.5182
dication	-11.5193
dela	-11.5229
orton	-11.5232
▁blam	-11.5241
olished	-11.5255
▁preview	-11.5276
▁gut	-11.5278
▁Brook	-11.5278
cross	-11.5282
▁rag	-11.5299
14	-11.5334
▁civil	-11.5345
▁sale	-11.5348
ume	-11.5357
▁harm	-11.5363
▁chop	-11.5365
▁lip	-11.537
generated	-11.5381
blo	-11.5394
▁(197	-11.5395
tile	-11.5405
Gere	-11.5417
stead	-11.543
erotic	-11.5434
▁cheat	-11.5435
will	-11.5436
look	-11.5444
▁(200	-11.5458
elected	-11.5458
▁flip	-11.5464
▁numb	-11.5465
insert	-11.5469
▁argu	-11.5474
▁mode	-11.5475
▁bow	-11.5476
$	-11.5477
▁organ	-11.5477
cream	-11.5479
▁overwhelm	-11.5483
Doctor	-11.5485
Consider	-11.5486
Meanwhile	-11.5487
quirky	-11.5487
Basically	-11.5488
Thank	-11.5488
Probably	-11.5488
Plan	-11.5488
Seriously	-11.5488
numbers	-11.5489
standard	-11.5489
Yeah	-11.5489
yeah	-11.5489
George	-11.549
Richard	-11.549
perhaps	-11.549
2/10	-11.549
despi	-11.549
Hollywood	-11.549
character	-11.549
because	-11.549
people	-11.549
after	-11.549
God	-11.549
serious	-11.5491
production	-11.5491
balance	-11.5492
Instead	-11.5492
Later	-11.5492
Very	-11.5494
Every	-11.5497
▁shout	-11.5498
flick	-11.5498
▁aesthetic	-11.5502
half	-11.5505
throw	-11.5506
▁dang	-11.551
camera	-11.551
▁frequent	-11.5511
ALLY	-11.5513
▁eventual	-11.5513
Never	-11.5516
▁craze	-11.5516
▁ultimate	-11.5519
▁Davi	-11.5522
kick	-11.5523
Sex	-11.5524
▁femini	-11.5526
▁abduct	-11.5533
▁studi	-11.5535
mostly	-11.5535
▁Mario	-11.5536
WAY	-11.5537
▁Under	-11.554
xperts	-11.554
▁symbol	-11.554
▁liber	-11.5542
▁alcohol	-11.5544
▁Lind	-11.5544
lockbuster	-11.5546
imaginative	-11.5546
etween	-11.5546
stitute	-11.5546
>	-11.5546
aranormal	-11.5546
▁Wonder	-11.5547
▁Rubin	-11.5548
omebody	-11.5548
▁cigar	-11.5548
▁exorcis	-11.5548
▁snooze	-11.5548
▁triumph	-11.5548
Airplane	-11.5548
Dungeon	-11.5548
HEART	-11.5548
RATING	-11.5548
achieving	-11.5548
deliberate	-11.5548
magnificent	-11.5548
sarcasm	-11.5548
utobiography	-11.5548
▁1987	-11.5548
▁Academy	-11.5548
▁Almodovar	-11.5548
▁Arizona	-11.5548
▁Basterds	-11.5548
▁Bihn	-11.5548
▁Broadway	-11.5548
▁Cheerlead	-11.5548
▁Colonel	-11.5548
▁Complete	-11.5548
▁Concorde	-11.5548
▁Democrat	-11.5548
▁Dietrich	-11.5548
▁Fantasy	-11.5548
▁Gabriel	-11.5548
▁Galaxy	-11.5548
▁Griffith	-11.5548
▁HORROR	-11.5548
▁Jacob	-11.5548
▁Lupino	-11.5548
▁MAGOO	-11.5548
▁Manhattan	-11.5548
▁Margera	-11.5548
▁Matrix	-11.5548
▁Miranda	-11.5548
▁Naturally	-11.5548
▁Netflix	-11.5548
▁SHOW	-11.5548
▁Samantha	-11.5548
▁Shepherd	-11.5548
▁Spears	-11.5548
▁Spiderman	-11.5548
▁Sutherland	-11.5548
▁Sylvi	-11.5548
▁Thompson	-11.5548
▁Treadwell	-11.5548
▁Underdog	-11.5548
▁VILLA	-11.5548
▁Waverly	-11.5548
▁advantage	-11.5548
▁basket	-11.5548
▁bridge	-11.5548
▁chemical	-11.5548
▁companies	-11.5548
▁compliment	-11.5548
▁condemn	-11.5548
▁contrary	-11.5548
▁corridor	-11.5548
▁disastrous	-11.5548
▁disregard	-11.5548
▁dynamic	-11.5548
▁empathy	-11.5548
▁eternity	-11.5548
▁ethnic	-11.5548
▁exhibit	-11.5548
▁exterior	-11.5548
▁fiasco	-11.5548
▁fortunate	-11.5548
▁grieving	-11.5548
▁humiliat	-11.5548
▁imprison	-11.5548
▁ingredients	-11.5548
▁injury	-11.5548
▁irrelevant	-11.5548
▁kitchen	-11.5548
▁league	-11.5548
▁lovable	-11.5548
▁manipulated	-11.5548
▁misleading	-11.5548
▁monologue	-11.5548
▁neighborhood	-11.5548
▁orphanage	-11.5548
▁philosophy	-11.5548
▁pleasing	-11.5548
▁predecessor	-11.5548
▁prejudice	-11.5548
▁preparation	-11.5548
▁professor	-11.5548
▁prominent	-11.5548
▁proportions	-11.5548
▁register	-11.5548
▁resolution	-11.5548
▁screech	-11.5548
▁sensitive	-11.5548
▁sloppi	-11.5548
▁sorority	-11.5548
▁strateg	-11.5548
▁stunned	-11.5548
▁substanti	-11.5548
▁suicidal	-11.5548
▁supreme	-11.5548
▁synopsis	-11.5548
▁tattoo	-11.5548
▁tepid	-11.5548
▁territory	-11.5548
▁triangle	-11.5548
▁undeveloped	-11.5548
▁unlikable	-11.5548
▁unnecessarily	-11.5548
▁vessel	-11.5548
▁voyage	-11.5548
fetched	-11.5548
hipwreck	-11.5548
▁'80	-11.5548
▁Alpha	-11.5548
▁NBC	-11.5548
▁NYC	-11.5548
▁Pierce	-11.5548
▁Weapon	-11.5548
▁buzz	-11.5548
▁censor	-11.5548
▁embrace	-11.5548
▁feeble	-11.5548
▁hackneyed	-11.5548
▁intimidat	-11.5548
▁misunderstand	-11.5548
▁prequel	-11.5548
▁razor	-11.5548
▁shield	-11.5548
▁sinister	-11.5548
▁spiral	-11.5548
▁supply	-11.5548
zzle	-11.5548
▁Everett	-11.5548
▁Glenn	-11.5548
▁Hudson	-11.5548
▁MGM	-11.5548
▁Sandler	-11.5548
▁Shatner	-11.5548
▁Tucker	-11.5548
▁dedicate	-11.5548
▁rapidly	-11.5548
▁Brando	-11.5548
▁delightful	-11.5548
▁gritty	-11.5548
▁/>1/10	-11.5548
▁Ollie	-11.5548
▁choreograph	-11.5548
▁identify	-11.5548
▁request	-11.5548
PLUMP	-11.5548
▁Field	-11.5548
▁Welch	-11.5548
▁civilians	-11.5548
▁crippl	-11.5548
▁devour	-11.5548
▁MIAs	-11.5548
▁fetish	-11.5548
▁litter	-11.5548
▁pride	-11.5548
▁qualifie	-11.5548
-16	-11.5548
▁dawn	-11.5548
▁mayhem	-11.5548
▁marvel	-11.5548
▁clinic	-11.5548
▁Radu	-11.5548
▁magn	-11.5548
▁Cream	-11.5548
▁Ellen	-11.5548
▁Brain	-11.5548
▁Until	-11.5548
▁disabled	-11.5548
▁Carrot	-11.5548
▁havoc	-11.5548
▁vengeance	-11.5548
▁demonstrat	-11.5548
▁heaven	-11.5548
▁dismal	-11.5548
▁flames	-11.5548
▁hysterical	-11.5548
▁portal	-11.5548
▁blew	-11.5548
▁concoct	-11.5548
!!!!!!!!!!!!	-11.5548
▁beware	-11.5548
▁ensure	-11.5548
▁ladies	-11.5548
▁auteur	-11.5548
MAKE	-11.5548
elusion	-11.5548
▁darn	-11.5548
motivated	-11.5548
▁stairs	-11.5548
▁Aaron	-11.5548
▁rude	-11.5548
Legend	-11.5548
Enough	-11.5548
▁Forget	-11.5548
▁Anderson	-11.5548
▁narcissistic	-11.5548
▁facility	-11.5548
▁miniseries	-11.5548
▁Irving	-11.5548
▁mutilat	-11.5548
▁sample	-11.5548
lusive	-11.5549
▁rising	-11.5549
▁Tell	-11.5549
▁Adventure	-11.5549
▁blessing	-11.5549
▁meteor	-11.5549
▁grandfather	-11.5549
▁Curry	-11.5549
▁Morris	-11.5549
▁cloning	-11.5549
▁Simple	-11.5549
▁straightforward	-11.5549
▁birthday	-11.5549
▁Wesley	-11.5549
oyote	-11.5549
▁employee	-11.5549
▁shift	-11.5549
▁divide	-11.5549
▁afterwards	-11.5549
▁Wild	-11.5549
▁Serb	-11.5549
pick	-11.5549
hhh	-11.5549
▁cobbl	-11.5549
▁depart	-11.5549
▁2008	-11.5549
.99	-11.5549
▁humble	-11.5549
communist	-11.5549
palace	-11.555
▁depressed	-11.555
▁spiritual	-11.555
▁ambigu	-11.555
roopers	-11.555
▁Pleasence	-11.555
▁electricity	-11.555
▁pathos	-11.555
▁enlist	-11.555
▁swamp	-11.555
▁2005	-11.555
▁imitation	-11.555
▁Clint	-11.555
▁baseball	-11.555
▁hammy	-11.555
▁Train	-11.555
▁Spike	-11.555
▁Warren	-11.555
▁Brink	-11.555
Hulk	-11.555
▁fond	-11.555
▁Bava	-11.555
▁Demons	-11.555
▁unfair	-11.5551
▁airport	-11.5551
▁occurred	-11.5551
▁whiny	-11.5551
▁reprise	-11.5551
▁mount	-11.5551
▁firing	-11.5551
▁timing	-11.5551
▁collective	-11.5551
damaged	-11.5551
▁gunshot	-11.5551
▁Nicholas	-11.5551
▁charismatic	-11.5551
▁Reality	-11.5551
▁sappy	-11.5551
▁soph	-11.5551
▁$3	-11.5551
▁auto	-11.5552
▁observation	-11.5552
▁GOD	-11.5552
▁vital	-11.5552
▁paranoia	-11.5552
▁limp	-11.5552
▁strive	-11.5552
▁thrust	-11.5552
▁Howell	-11.5552
antastic	-11.5552
▁Zellweger	-11.5552
▁chuckle	-11.5552
▁Hope	-11.5552
▁arouse	-11.5552
▁alcoholic	-11.5552
▁unremarkable	-11.5553
▁Mind	-11.5553
▁Everest	-11.5553
▁debat	-11.5553
▁modest	-11.5553
▁fluff	-11.5553
▁stress	-11.5553
▁poker	-11.5553
▁property	-11.5553
▁zone	-11.5553
▁linger	-11.5554
▁flair	-11.5554
▁baddies	-11.5554
▁loop	-11.5554
▁tax	-11.5554
▁involvement	-11.5554
▁cohesive	-11.5554
▁Alba	-11.5554
▁Elam	-11.5554
▁McConaughey	-11.5555
▁Schwarzenegger	-11.5555
▁operation	-11.5555
▁considerably	-11.5555
▁rampa	-11.5555
Simply	-11.5555
▁Sara	-11.5555
▁maintain	-11.5555
▁Mummy	-11.5555
▁arrival	-11.5555
▁sadistic	-11.5556
▁Leland	-11.5556
▁tail	-11.5556
NSA	-11.5556
▁Grand	-11.5557
▁winner	-11.5557
▁Jay	-11.5557
▁Light	-11.5557
▁Sweden	-11.5557
▁sentimental	-11.5558
▁gum	-11.5558
▁International	-11.5558
▁Prince	-11.5558
▁arrange	-11.5558
▁bald	-11.5559
▁illness	-11.5559
▁minus	-11.556
▁Willis	-11.556
▁grant	-11.556
▁payoff	-11.556
▁Kong	-11.5561
▁patch	-11.5561
simil	-11.5562
▁Goodman	-11.5562
incarnat	-11.5562
▁unreal	-11.5563
▁applaud	-11.5563
▁tv	-11.5563
▁summarize	-11.5564
▁iron	-11.5564
▁Tea	-11.5564
▁scarie	-11.5564
▁Body	-11.5564
▁momentum	-11.5564
▁engineer	-11.5565
▁Mongolian	-11.5566
▁Nobody	-11.5566
▁Scarlett	-11.5566
▁Steiger	-11.5566
▁Vacation	-11.5566
▁WARNING	-11.5566
▁pistol	-11.5566
▁Ernest	-11.5566
▁Office	-11.5566
▁intro	-11.5566
▁sexuality	-11.5566
▁Dante	-11.5566
▁terrifying	-11.5566
▁sneak	-11.5567
▁torn	-11.5567
▁spice	-11.5567
unior	-11.5567
elite	-11.5567
▁Vince	-11.5568
▁cleverness	-11.5568
▁Hank	-11.5568
▁vice	-11.5568
▁Today	-11.5568
ACT	-11.5568
hiding	-11.5568
▁traditional	-11.5569
▁advertised	-11.5569
does	-11.557
▁Harrison	-11.557
▁flashes	-11.557
▁assure	-11.557
▁meantime	-11.557
vious	-11.557
Conclusion	-11.5571
▁resolved	-11.5571
▁Herman	-11.5572
▁overacting	-11.5572
▁Rich	-11.5572
▁dement	-11.5574
▁35	-11.5576
▁Coen	-11.5576
▁Chil	-11.5577
▁jealousy	-11.5578
▁Fire	-11.5578
▁GO	-11.5578
▁overlong	-11.5579
▁insightful	-11.5579
▁beaten	-11.558
▁belt	-11.558
▁dragon	-11.5581
▁Fisher	-11.5581
▁crazed	-11.5581
▁Rip	-11.5582
▁Terry	-11.5582
▁greedy	-11.5582
▁update	-11.5582
▁JP	-11.5583
▁sur	-11.5586
▁outcast	-11.5586
▁Werewol	-11.5588
▁cancer	-11.5589
▁anyhow	-11.5589
two	-11.5592
▁adequately	-11.5593
▁improvise	-11.5593
▁justified	-11.5595
▁Anth	-11.5596
▁22	-11.5596
daring	-11.5596
▁fist	-11.5599
▁stereotyped	-11.56
▁Armageddon	-11.56
lving	-11.5602
EG	-11.5602
▁Rent	-11.5602
Silv	-11.5604
▁initially	-11.5607
▁True	-11.5607
▁crosses	-11.5609
▁Nest	-11.5609
▁tuned	-11.5611
▁Shaw	-11.5611
▁Doctor	-11.5612
▁philosophi	-11.5614
also	-11.5614
▁Cry	-11.5615
▁Gray	-11.5615
▁surfer	-11.5616
▁participate	-11.562
▁argue	-11.5621
▁butcher	-11.5625
dispute	-11.5628
▁hyped	-11.5628
guy	-11.5629
▁Away	-11.5632
▁hatch	-11.5633
▁refugee	-11.5634
▁physically	-11.5634
▁Party	-11.5637
▁appreciati	-11.564
▁TR	-11.564
▁linear	-11.5642
▁hitting	-11.5649
emic	-11.565
▁abused	-11.5652
▁tag	-11.5653
▁parking	-11.5655
▁numbing	-11.5655
▁Kay	-11.5658
afia	-11.5662
▁alas	-11.5664
Miche	-11.5672
consci	-11.5672
▁Indiana	-11.5675
▁wishes	-11.5683
▁height	-11.5685
Secretary	-11.5687
▁tease	-11.5694
▁closer	-11.5705
VEN	-11.5707
▁fuzz	-11.5708
▁asses	-11.5712
▁driven	-11.5716
!?!	-11.572
lop	-11.5725
llies	-11.5738
▁stake	-11.574
leg	-11.5742
remarkable	-11.5749
▁hurr	-11.576
▁miner	-11.5763
▁Osa	-11.5768
▁junkie	-11.5774
xter	-11.5775
▁Mol	-11.5797
ku	-11.5812
▁seduc	-11.5816
estination	-11.5828
▁archiv	-11.5828
▁filler	-11.5835
▁Witch	-11.5839
▁Ask	-11.584
▁Killer	-11.5841
????	-11.5843
▁trucker	-11.5865
create	-11.5868
mid	-11.5881
▁participat	-11.5881
ré	-11.5889
▁surrealis	-11.5918
earing	-11.5935
Godfather	-11.5936
breaking	-11.5941
▁prov	-11.595
itto	-11.5966
businessmen	-11.597
arren	-11.5973
post	-11.5997
▁abusi	-11.6013
EW	-11.6032
▁nav	-11.6043
▁Vice	-11.6054
Hav	-11.6065
▁Ev	-11.6099
▁axe	-11.6117
drum	-11.6123
▁bone	-11.6129
▁mish	-11.6143
▁compet	-11.6151
qua	-11.6159
▁Ver	-11.6171
Dan	-11.6201
Admittedly	-11.6203
▁tortur	-11.6237
▁unemploy	-11.6245
AMA	-11.6253
lding	-11.6256
big	-11.6261
vocati	-11.6265
alance	-11.6276
TOO	-11.6281
onda	-11.6325
▁react	-11.6357
▁shad	-11.6362
▁camper	-11.6393
▁adventur	-11.6397
onnie	-11.6407
▁suburb	-11.6456
lsen	-11.6481
▁infinite	-11.653
loud	-11.6534
VE	-11.6561
▁translat	-11.6573
rett	-11.6585
▁elevat	-11.6597
OME	-11.6653
INE	-11.668
▁math	-11.6687
merge	-11.6698
▁Total	-11.6722
bait	-11.6741
▁packag	-11.6752
▁coma	-11.6774
▁Um	-11.6778
clear	-11.6791
▁unde	-11.6798
dmittedly	-11.6806
▁Wall	-11.6823
lumber	-11.6838
▁mute	-11.6844
▁compete	-11.6864
▁Gil	-11.6866
icles	-11.6872
▁stab	-11.69
▁List	-11.6947
mash	-11.7007
▁Leo	-11.7011
▁Budd	-11.704
Tar	-11.7055
▁Assassin	-11.7078
mont	-11.7157
▁mil	-11.7157
▁crapp	-11.7165
moving	-11.7169
▁Harp	-11.7177
▁$10	-11.7212
dric	-11.7215
▁mop	-11.7228
▁distr	-11.7228
▁error	-11.727
▁bullet	-11.7275
▁folk	-11.7279
▁buck	-11.7292
▁Victor	-11.7295
See	-11.7296
▁Burn	-11.7325
ffect	-11.7351
▁Secret	-11.738
Pro	-11.739
▁1000	-11.7391
lika	-11.7397
military	-11.7407
probably	-11.7417
Cow	-11.7423
▁Chi	-11.7431
▁ghouli	-11.7435
rgen	-11.7436
ddler	-11.7449
▁Marti	-11.7455
attering	-11.7458
▁arrogan	-11.7465
▁stumbl	-11.7466
pathetic	-11.7473
onald	-11.7474
▁battl	-11.7477
82	-11.7478
write	-11.7478
▁smil	-11.7482
Armageddon	-11.7485
original	-11.7486
Human	-11.7486
craft	-11.7486
Hellraiser	-11.7486
cheek	-11.7486
Lost	-11.7487
Besides	-11.7487
experienced	-11.7487
Eric	-11.7488
Otherwise	-11.7488
Friday	-11.7488
writer	-11.7488
wind	-11.7489
drama	-11.7489
actresses	-11.7489
People	-11.7489
familiar	-11.7489
focus	-11.7489
plus	-11.7489
Black	-11.7489
William	-11.7489
Despi	-11.7489
language	-11.7489
Everything	-11.7489
Scott	-11.749
Peter	-11.749
amount	-11.749
important	-11.749
David	-11.749
okay	-11.749
James	-11.749
average	-11.749
space	-11.749
except	-11.749
child	-11.749
complete	-11.749
House	-11.749
figure	-11.749
second	-11.749
Nothing	-11.749
different	-11.749
power	-11.749
twist	-11.749
terrible	-11.749
stories	-11.749
earth	-11.749
great	-11.749
feel	-11.749
cake	-11.749
genre	-11.7491
ifying	-11.7491
justice	-11.7491
credit	-11.7492
particularly	-11.7492
again	-11.7494
Director	-11.7494
count	-11.7496
Which	-11.7497
turn	-11.7499
human	-11.7499
▁accomplish	-11.75
▁crush	-11.75
▁retard	-11.7501
45	-11.7503
huh	-11.7505
▁profession	-11.7506
personal	-11.7507
15	-11.7508
level	-11.751
End	-11.7511
eeming	-11.7511
west	-11.7514
▁retire	-11.7515
▁engage	-11.7516
opping	-11.7516
▁inspire	-11.7516
ranged	-11.7517
clusion	-11.7519
cool	-11.752
▁Woo	-11.7521
▁quirk	-11.7524
▁slash	-11.7526
▁Russia	-11.7528
hour	-11.754
▁mirac	-11.7542
▁Harris	-11.7544
▁Nichol	-11.7544
▁fruit	-11.7545
zzie	-11.7545
▁cook	-11.7545
▁differ	-11.7546
▁practi	-11.7547
Mary	-11.7547
▁comprehen	-11.7548
▁respons	-11.7548
▁stereo	-11.7548
▁smug	-11.7548
▁plod	-11.7548
▁Tenchi	-11.7548
▁activities	-11.7548
▁desperation	-11.7548
2:37	-11.7548
Caribbean	-11.7548
DeCoteau	-11.7548
Django	-11.7548
Professor	-11.7548
Shuttle	-11.7548
enobites	-11.7548
esquire	-11.7548
excusable	-11.7548
ndependence	-11.7548
squid	-11.7548
ç	-11.7548
▁(198	-11.7548
▁1991	-11.7548
▁1994	-11.7548
▁BLOOD	-11.7548
▁Baldwin	-11.7548
▁Beauty	-11.7548
▁Belushi	-11.7548
▁Children	-11.7548
▁Claibourne	-11.7548
▁Coburn	-11.7548
▁Crisp	-11.7548
▁Dangerfield	-11.7548
▁Detective	-11.7548
▁Dylan	-11.7548
▁Englund	-11.7548
▁Execut	-11.7548
▁FOX	-11.7548
▁Gedren	-11.7548
▁Generation	-11.7548
▁Isobel	-11.7548
▁Jamaica	-11.7548
▁Keira	-11.7548
▁Kentucky	-11.7548
▁Kilmer	-11.7548
▁Knautz	-11.7548
▁Lopez	-11.7548
▁Lorelei	-11.7548
▁Merchant	-11.7548
▁Mirren	-11.7548
▁PLOT	-11.7548
▁Paxton	-11.7548
▁Perkins	-11.7548
▁Puppet	-11.7548
▁Python	-11.7548
▁Quigley	-11.7548
▁Ritchie	-11.7548
▁Samurai	-11.7548
▁Scotland	-11.7548
▁Stefan	-11.7548
▁Studios	-11.7548
▁Thornton	-11.7548
▁Tilney	-11.7548
▁Veronica	-11.7548
▁Vittoria	-11.7548
▁Wurtzel	-11.7548
▁ZERO	-11.7548
▁abundan	-11.7548
▁airplane	-11.7548
▁altogether	-11.7548
▁analysis	-11.7548
▁audition	-11.7548
▁barbershop	-11.7548
▁bartender	-11.7548
▁behaviour	-11.7548
▁biography	-11.7548
▁biopic	-11.7548
▁botched	-11.7548
▁campaign	-11.7548
▁centuries	-11.7548
▁circuit	-11.7548
▁circus	-11.7548
▁colonel	-11.7548
▁communicate	-11.7548
▁contradict	-11.7548
▁cyborg	-11.7548
▁debacle	-11.7548
▁default	-11.7548
▁definition	-11.7548
▁depression	-11.7548
▁discipline	-11.7548
▁disintegrat	-11.7548
▁distasteful	-11.7548
▁draft	-11.7548
▁electrocut	-11.7548
▁ensemble	-11.7548
▁entitled	-11.7548
▁exaggerated	-11.7548
▁exaggerating	-11.7548
▁exclusive	-11.7548
▁extraordinary	-11.7548
▁fabulous	-11.7548
▁gigantic	-11.7548
▁guerrilla	-11.7548
▁gymnastics	-11.7548
▁gypsy	-11.7548
▁homophobic	-11.7548
▁ignorance	-11.7548
▁immense	-11.7548
▁inferior	-11.7548
▁innocence	-11.7548
▁insomnia	-11.7548
▁irreveren	-11.7548
▁journalist	-11.7548
▁lethargic	-11.7548
▁luxury	-11.7548
▁meltdown	-11.7548
▁merciless	-11.7548
▁monotone	-11.7548
▁monotonous	-11.7548
▁monstrosity	-11.7548
▁muscle	-11.7548
▁neglect	-11.7548
▁nemesis	-11.7548
▁occult	-11.7548
▁overbearing	-11.7548
▁permanent	-11.7548
▁perverse	-11.7548
▁rabbit	-11.7548
▁reappear	-11.7548
▁redneck	-11.7548
▁redundan	-11.7548
▁refreshing	-11.7548
▁retrieve	-11.7548
▁revolt	-11.7548
▁sarcastic	-11.7548
▁savage	-11.7548
▁silence	-11.7548
▁sluggish	-11.7548
▁smirk	-11.7548
▁solution	-11.7548
▁splash	-11.7548
▁stagecoach	-11.7548
▁sublime	-11.7548
▁submarine	-11.7548
▁sufficient	-11.7548
▁supermarket	-11.7548
▁syrup	-11.7548
▁treasure	-11.7548
▁unanswered	-11.7548
▁unattractive	-11.7548
▁underdeveloped	-11.7548
▁unfaithful	-11.7548
▁unforgivable	-11.7548
▁voyeuristic	-11.7548
▁whack	-11.7548
▁wheelchair	-11.7548
▁wretched	-11.7548
▁Affleck	-11.7548
▁Anthara	-11.7548
▁Darwin	-11.7548
▁IMDB	-11.7548
▁Language	-11.7548
▁Radzoff	-11.7548
▁STUPID	-11.7548
▁Watson	-11.7548
▁Wrong	-11.7548
▁Zealand	-11.7548
▁aggravat	-11.7548
▁buffoon	-11.7548
▁companion	-11.7548
▁grandmother	-11.7548
▁implied	-11.7548
▁karate	-11.7548
▁monstrous	-11.7548
▁neighbour	-11.7548
▁optimis	-11.7548
▁potato	-11.7548
▁rehearsal	-11.7548
▁schtick	-11.7548
▁transition	-11.7548
▁vulgar	-11.7548
▁Boorman	-11.7548
▁Nightmare	-11.7548
▁Saddam	-11.7548
▁Squad	-11.7548
▁Stereotypes	-11.7548
▁Wolf	-11.7548
▁essence	-11.7548
▁goddess	-11.7548
▁intensity	-11.7548
▁nonetheless	-11.7548
▁nurse	-11.7548
▁reserve	-11.7548
▁vocal	-11.7548
▁yourselves	-11.7548
▁Castro	-11.7548
▁Edison	-11.7548
▁Muller	-11.7548
▁Sterling	-11.7548
▁WHI	-11.7548
▁finance	-11.7548
▁smack	-11.7548
STORY	-11.7548
▁Cushing	-11.7548
▁Tramp	-11.7548
▁abortion	-11.7548
▁hitchhik	-11.7548
▁session	-11.7548
Clearly	-11.7548
▁Spirit	-11.7548
▁Wisdom	-11.7548
▁chomp	-11.7548
▁mysteries	-11.7548
▁revolution	-11.7548
▁warrant	-11.7548
▁wicked	-11.7548
Yesterday	-11.7548
▁Thanksgiving	-11.7548
▁aftermath	-11.7548
▁spoon	-11.7548
▁aimlessly	-11.7548
▁dentist	-11.7548
▁morph	-11.7548
▁restrain	-11.7548
▁slob	-11.7548
▁Carrell	-11.7548
▁daily	-11.7548
▁sprinkl	-11.7548
Empire	-11.7548
▁Destiny	-11.7548
▁Drama	-11.7548
▁library	-11.7548
▁limb	-11.7548
▁Emma	-11.7548
▁enrage	-11.7548
▁deaf	-11.7548
▁euro	-11.7548
construction	-11.7548
▁Peak	-11.7548
zza	-11.7548
▁Agent	-11.7548
▁eyeballs	-11.7548
▁Douglas	-11.7548
▁Hearst	-11.7548
▁Susan	-11.7548
▁Dream	-11.7548
▁honey	-11.7548
▁gush	-11.7548
▁steady	-11.7548
▁Carell	-11.7548
▁shuttle	-11.7548
▁LOVE	-11.7548
▁enhanc	-11.7548
▁plodding	-11.7548
▁Betty	-11.7548
▁distant	-11.7548
▁faint	-11.7548
Robocop	-11.7548
▁estate	-11.7548
▁exceed	-11.7548
▁futile	-11.7548
▁domain	-11.7548
▁hesitate	-11.7548
▁$$	-11.7548
▁distress	-11.7548
▁reign	-11.7548
▁witchcraft	-11.7548
▁Faye	-11.7548
hastly	-11.7548
▁Left	-11.7548
▁acknowledge	-11.7548
▁believability	-11.7548
▁captor	-11.7548
▁Hawk	-11.7548
▁quantit	-11.7548
▁underscore	-11.7548
▁Pear	-11.7548
▁idol	-11.7548
▁scoring	-11.7548
▁forehead	-11.7548
▁moderate	-11.7548
▁CSI	-11.7549
▁literature	-11.7549
▁Gosling	-11.7549
▁Butchers	-11.7549
▁carniv	-11.7549
▁Bryan	-11.7549
▁Hopefully	-11.7549
▁terminal	-11.7549
illusion	-11.7549
▁Cannes	-11.7549
▁preced	-11.7549
▁Gregory	-11.7549
▁Bennett	-11.7549
▁defense	-11.7549
▁Chains	-11.7549
▁uptight	-11.7549
cclaimed	-11.7549
▁Republic	-11.7549
▁hollow	-11.7549
▁expensive	-11.7549
▁contract	-11.7549
▁justify	-11.7549
▁uglie	-11.7549
▁sulk	-11.7549
▁lyric	-11.7549
▁uncover	-11.7549
▁Southern	-11.7549
▁Bergen	-11.7549
▁Carolina	-11.7549
▁flood	-11.7549
▁Bernard	-11.7549
▁tagline	-11.7549
▁dripp	-11.7549
▁profound	-11.7549
undercover	-11.755
▁outrage	-11.755
▁Grier	-11.755
▁Civi	-11.755
▁Spain	-11.755
▁staple	-11.755
▁shining	-11.755
WTF	-11.755
fathom	-11.755
▁secure	-11.755
▁jean	-11.755
▁improbable	-11.755
▁groom	-11.755
▁2004	-11.755
▁bedroom	-11.755
▁lunch	-11.755
▁Patricia	-11.755
▁alarm	-11.755
▁poison	-11.755
▁kung	-11.755
▁yellow	-11.755
▁Bradley	-11.755
▁1933	-11.755
▁hoot	-11.755
▁Popp	-11.755
▁discount	-11.7551
Snake	-11.7551
▁Gamera	-11.7551
▁pressure	-11.7551
▁dough	-11.7551
▁HOW	-11.7551
▁underwear	-11.7551
▁authorities	-11.7551
ivated	-11.7551
▁paranormal	-11.7551
▁roof	-11.7551
▁Valley	-11.7551
▁staff	-11.7551
▁Lauren	-11.7551
▁kidding	-11.7551
▁strut	-11.7551
▁Moreover	-11.7551
venue	-11.7551
▁angst	-11.7551
▁Midian	-11.7551
▁canvas	-11.7551
▁cavemen	-11.7551
▁cringing	-11.7551
▁Baker	-11.7552
▁panties	-11.7552
Harlem	-11.7552
▁Laden	-11.7552
▁erupt	-11.7552
▁echo	-11.7552
▁"1"	-11.7552
▁Kingdom	-11.7552
ULL	-11.7552
▁slide	-11.7552
▁jury	-11.7552
▁melodramatic	-11.7552
▁Outside	-11.7553
▁Dilly	-11.7553
▁slack	-11.7553
valent	-11.7553
▁barney	-11.7553
▁mankind	-11.7553
▁Judge	-11.7553
Break	-11.7553
▁confrontation	-11.7553
▁Jew	-11.7554
▁shotgun	-11.7554
▁unimaginative	-11.7554
▁breathtaking	-11.7554
bury	-11.7554
▁skimp	-11.7554
▁Swain	-11.7554
▁Giant	-11.7554
▁Shiban	-11.7554
▁masterful	-11.7555
▁raving	-11.7555
▁LOT	-11.7555
▁imagery	-11.7555
▁drumm	-11.7556
▁bombard	-11.7556
▁symbolic	-11.7556
▁poop	-11.7556
▁Foreigner	-11.7556
▁lightning	-11.7556
▁Frankie	-11.7556
▁SCI	-11.7556
▁mentality	-11.7557
▁nit	-11.7557
oggi	-11.7557
▁Milian	-11.7557
▁consistent	-11.7557
▁Loren	-11.7557
▁stash	-11.7558
▁earnest	-11.7558
▁predat	-11.7558
▁adaption	-11.7558
▁letdown	-11.7559
▁Sunny	-11.7559
▁EVERY	-11.7559
▁Udo	-11.7559
▁Michel	-11.7559
Amato	-11.7559
▁Burton	-11.756
▁Terror	-11.756
▁Game	-11.756
Class	-11.756
▁surge	-11.756
▁secretary	-11.756
▁spout	-11.756
▁possesses	-11.7561
ontaine	-11.7561
▁Doom	-11.7561
▁Lola	-11.7561
STER	-11.7562
▁cub	-11.7562
characterisation	-11.7562
▁scout	-11.7562
▁STA	-11.7563
▁Leno	-11.7563
▁duck	-11.7563
▁Nata	-11.7563
▁HOL	-11.7563
oison	-11.7563
▁contribution	-11.7563
▁morality	-11.7564
▁Hmm	-11.7564
▁passage	-11.7564
▁AWAY	-11.7565
▁Fight	-11.7566
▁diverse	-11.7566
▁HOR	-11.7566
▁progresses	-11.7567
river	-11.7567
▁madness	-11.7568
▁consideration	-11.7568
▁golden	-11.7568
door	-11.7568
TEN	-11.7569
▁Book	-11.7569
▁comeback	-11.757
▁Inki	-11.757
▁Christianity	-11.757
▁Beck	-11.757
▁Maria	-11.7571
▁Raci	-11.7571
Underworld	-11.7573
ilian	-11.7573
▁divorced	-11.7574
▁eliminated	-11.7574
▁tenant	-11.7574
gymnast	-11.7574
▁Apes	-11.7575
▁sickness	-11.7576
▁shall	-11.7576
fication	-11.7576
▁Wick	-11.7576
▁Manson	-11.7578
▁Cave	-11.7579
ogether	-11.758
▁overcome	-11.758
▁cage	-11.7581
▁retired	-11.7581
▁engaged	-11.7581
▁stale	-11.7583
▁neo	-11.7585
▁Vietnames	-11.7586
▁selfish	-11.7586
▁kit	-11.7587
tangle	-11.7588
▁punches	-11.7588
ACE	-11.7588
▁perfection	-11.759
▁headline	-11.759
▁perpetual	-11.7591
▁hellish	-11.7592
▁feat	-11.7592
▁Want	-11.7593
ancy	-11.7595
▁imitate	-11.7595
destructi	-11.7596
▁Worse	-11.7599
▁peak	-11.7599
been	-11.76
▁Cassi	-11.7601
▁universal	-11.7602
▁Twin	-11.7602
▁capitalize	-11.7603
▁urin	-11.7603
▁overrated	-11.7605
▁Julian	-11.7605
▁Sue	-11.7605
▁Forty	-11.7607
▁Him	-11.7612
wear	-11.7614
rleans	-11.7617
▁kin	-11.7622
▁Kara	-11.7625
▁touches	-11.7625
▁Song	-11.7629
engi	-11.763
mpered	-11.7631
▁cus	-11.7631
▁Five	-11.7634
Comments	-11.7634
▁CG	-11.7635
She	-11.7635
▁dear	-11.7637
▁menu	-11.764
guise	-11.7651
▁Perl	-11.7652
▁square	-11.7653
77	-11.7661
▁mall	-11.7662
▁Josh	-11.7665
▁Russ	-11.7667
zel	-11.7671
▁bowl	-11.7678
▁Middle	-11.7679
▁rage	-11.7685
▁Cage	-11.7695
▁Rest	-11.7696
awyer	-11.7696
endel	-11.7699
▁shave	-11.77
▁flipp	-11.7712
soft	-11.7725
plight	-11.773
▁sympathize	-11.7732
▁Barb	-11.7743
Patti	-11.7744
identifi	-11.7769
▁toleran	-11.7771
▁shak	-11.7775
▁demean	-11.7778
▁tendenc	-11.7806
Free	-11.7809
▁vet	-11.7888
true	-11.7902
chin	-11.7937
▁Thor	-11.7942
▁arriv	-11.795
90%	-11.7952
Etern	-11.7957
Congo	-11.7968
▁shameful	-11.7983
uza	-11.7984
1965	-11.8001
▁mumbl	-11.8013
matter	-11.8017
rich	-11.802
▁tub	-11.8022
Lowe	-11.803
Ewan	-11.8062
road	-11.8066
ervice	-11.8067
media	-11.8081
▁Romania	-11.8096
hur	-11.8107
▁Friend	-11.8126
▁slipp	-11.8139
▁Ball	-11.8143
liance	-11.8156
freeze	-11.8204
arious	-11.8256
▁fogg	-11.8289
▁comfort	-11.8309
▁Trip	-11.8312
effe	-11.835
▁Sonn	-11.8353
▁Luck	-11.8354
▁realiz	-11.8355
ledge	-11.8397
logs	-11.8401
▁sunk	-11.8417
84	-11.8419
▁Hug	-11.8492
oggy	-11.851
Anim	-11.8511
whiz	-11.8517
▁explor	-11.8567
▁$7	-11.8575
ripp	-11.8591
HAT	-11.8678
OH	-11.868
vor	-11.8682
active	-11.8722
EST	-11.8725
▁Fast	-11.8728
▁fantastical	-11.873
astic	-11.8737
pole	-11.8746
pressed	-11.8756
▁rescu	-11.8782
▁Petr	-11.8802
AH	-11.8818
Luci	-11.8829
enetic	-11.883
literal	-11.8865
▁presum	-11.888
▁unimpress	-11.896
quarters	-11.906
▁requir	-11.9085
SOME	-11.909
placement	-11.9094
Lori	-11.9146
plicate	-11.917
high	-11.9175
Cheers	-11.9201
urious	-11.9204
▁enthusias	-11.9233
prise	-11.9261
▁85	-11.9359
guil	-11.9415
▁concentrat	-11.9423
mple	-11.9429
▁recreat	-11.9496
▁scum	-11.9505
EAN	-11.9515
truck	-11.9568
▁untru	-11.9596
deserving	-11.9619
THEN	-11.9646
windle	-11.9657
solved	-11.9669
▁Serv	-11.9686
meaning	-11.9702
▁brav	-11.9704
nails	-11.9714
▁prim	-11.9717
tract	-11.9728
▁195	-11.9729
▁Changi	-11.9733
47	-11.9744
erald	-11.9765
▁Brother	-11.9766
cluded	-11.977
▁survivor	-11.9773
▁introduc	-11.9781
▁flab	-11.9794
▁500	-11.982
nybody	-11.9837
▁entr	-11.9856
▁surviv	-11.9875
occup	-11.9885
▁LU	-11.989
▁decid	-11.9905
▁Swa	-11.9937
latter	-11.9937
Prom	-11.9947
ception	-11.9966
▁sigh	-11.9978
Direct	-11.9984
numbing	-11.9985
satisfied	-11.9986
Granted	-11.9986
▁compell	-11.9986
worship	-11.9986
▁accord	-11.9987
Battle	-11.9987
Honestly	-11.9987
Ghost	-11.9987
Lots	-11.9988
shirt	-11.9988
Laura	-11.9988
Family	-11.9988
public	-11.9988
dubbed	-11.9988
kind	-11.9988
normal	-11.9988
Read	-11.9988
comedic	-11.9989
Julia	-11.9989
social	-11.9989
Okay	-11.9989
freak	-11.9989
machine	-11.9989
nonsense	-11.9989
Bruce	-11.9989
Dracula	-11.9989
mystery	-11.9989
professional	-11.9989
bottom	-11.9989
Charles	-11.9989
climax	-11.9989
surprise	-11.9989
▁Murd	-11.9989
Perhaps	-11.999
Like	-11.999
modern	-11.999
build	-11.999
villain	-11.999
suspense	-11.999
murder	-11.999
basically	-11.999
please	-11.999
English	-11.999
expect	-11.999
Angel	-11.999
igator	-11.999
DVD	-11.999
Baby	-11.999
dream	-11.999
decent	-11.999
shooting	-11.9991
passion	-11.9992
candy	-11.9992
aware	-11.9992
Good	-11.9993
jump	-11.9994
Save	-11.9994
Lou	-11.9995
Paul	-11.9995
joke	-11.9996
forward	-11.9996
dark	-11.9997
Young	-11.9997
often	-12.0001
apart	-12.0001
Lance	-12.0001
SPOILERS	-12.0002
▁Iraq	-12.0002
USE	-12.0003
Myster	-12.0003
week	-12.0003
reality	-12.0004
could	-12.0004
Over	-12.0004
based	-12.0005
lift	-12.0006
▁distinct	-12.0007
Wow	-12.0007
▁snip	-12.001
sympath	-12.001
▁happi	-12.0011
▁Further	-12.0012
▁thorough	-12.0012
▁immediate	-12.0013
▁intend	-12.0014
▁eliminate	-12.0015
▁advertise	-12.0015
▁resolve	-12.0016
▁divorce	-12.0016
▁execute	-12.0017
▁muddle	-12.0018
Back	-12.0018
flow	-12.0018
▁gee	-12.0023
▁summari	-12.0024
▁Vinc	-12.0024
▁portra	-12.0025
▁divers	-12.0026
▁compose	-12.003
▁thru	-12.0042
▁responsib	-12.0043
▁impossib	-12.0043
NNE	-12.0043
▁posse	-12.0043
▁Europe	-12.0044
▁Walke	-12.0045
exican	-12.0045
▁electric	-12.0045
▁benef	-12.0045
▁pupp	-12.0046
▁Clee	-12.0046
▁chuck	-12.0046
▁excess	-12.0047
ictoria	-12.0047
▁empha	-12.0047
elevision	-12.0047
▁document	-12.0047
emorable	-12.0047
▁install	-12.0047
▁Kurt	-12.0047
▁[19	-12.0047
▁intellect	-12.0048
ashmi	-12.0048
LUM	-12.0048
ö	-12.0048
▁hypocri	-12.0048
Magnificent	-12.0048
POSSIBLE	-12.0048
aaaaa	-12.0048
spaghetti	-12.0048
▁Additiona	-12.0048
▁FILM	-12.0048
▁Liberal	-12.0048
▁Mountain	-12.0048
▁WRIT	-12.0048
▁champion	-12.0048
▁contempt	-12.0048
▁industrial	-12.0048
▁obscurity	-12.0048
▁tyrant	-12.0048
Ausentes	-12.0048
Bodrov	-12.0048
Charmed	-12.0048
Enjoy	-12.0048
Enterprise	-12.0048
Florida	-12.0048
Francis	-12.0048
Impossible	-12.0048
Troilus	-12.0048
Ultimately	-12.0048
biologist	-12.0048
burgh	-12.0048
consequent	-12.0048
emocracy	-12.0048
exaggeration	-12.0048
jumbo	-12.0048
lucination	-12.0048
mouthed	-12.0048
quisite	-12.0048
uuuu	-12.0048
zzz	-12.0048
ó	-12.0048
▁1974	-12.0048
▁1979	-12.0048
▁1986	-12.0048
▁1988	-12.0048
▁Achilles	-12.0048
▁Amazon	-12.0048
▁Argentine	-12.0048
▁Aykroyd	-12.0048
▁BOMB	-12.0048
▁Belgian	-12.0048
▁Biehn	-12.0048
▁Brotherhood	-12.0048
▁Buchanan	-12.0048
▁CALIGUL	-12.0048
▁CARNOSAUR	-12.0048
▁Caddyshack	-12.0048
▁Cinderella	-12.0048
▁Company	-12.0048
▁Covenant	-12.0048
▁Creepers	-12.0048
▁Crichton	-12.0048
▁Crisis	-12.0048
▁Cruelty	-12.0048
▁Cruise	-12.0048
▁Cruz	-12.0048
▁Demeter	-12.0048
▁Dialogue	-12.0048
▁Donlevy	-12.0048
▁Doohan	-12.0048
▁Dublin	-12.0048
▁Dunaway	-12.0048
▁Dvorak	-12.0048
▁Eduardo	-12.0048
▁Elliot	-12.0048
▁Entertainment	-12.0048
▁Escape	-12.0048
▁Essential	-12.0048
▁Estevez	-12.0048
▁GRAFFITTI	-12.0048
▁GREAT	-12.0048
▁Gilbey	-12.0048
▁Giphart	-12.0048
▁Godzilla	-12.0048
▁Gorcey	-12.0048
▁Gossett	-12.0048
▁Griswold	-12.0048
▁Guccione	-12.0048
▁Gypsy	-12.0048
▁Hardbodies	-12.0048
▁Herzog	-12.0048
▁Hundred	-12.0048
▁LILI	-12.0048
▁Lahti	-12.0048
▁Lampoon	-12.0048
▁Lombard	-12.0048
▁MARIANNE	-12.0048
▁MASSACRE	-12.0048
▁McDowell	-12.0048
▁McQueen	-12.0048
▁Messengers	-12.0048
▁Mozart	-12.0048
▁Nicola	-12.0048
▁Ogrodnik	-12.0048
▁Pacific	-12.0048
▁Pacino	-12.0048
▁Pakistan	-12.0048
▁Peace	-12.0048
▁Pennsylvania	-12.0048
▁Phoenix	-12.0048
▁Piranha	-12.0048
▁Polanski	-12.0048
▁Predictable	-12.0048
▁Problem	-12.0048
▁Psycho	-12.0048
▁Rejects	-12.0048
▁Revelation	-12.0048
▁Rhett	-12.0048
▁Ridiculous	-12.0048
▁Rohmer	-12.0048
▁Rommel	-12.0048
▁Sinatra	-12.0048
▁Sixties	-12.0048
▁Snipes	-12.0048
▁Spelling	-12.0048
▁Spencer	-12.0048
▁Suddenly	-12.0048
▁Summer	-12.0048
▁TERRIBL	-12.0048
▁THREE	-12.0048
▁TIMES	-12.0048
▁Temujin	-12.0048
▁Thumb	-12.0048
▁UFO	-12.0048
▁Underground	-12.0048
▁Usually	-12.0048
▁WESTERN	-12.0048
▁WRONG	-12.0048
▁Wayans	-12.0048
▁Zucco	-12.0048
▁abilities	-12.0048
▁accompany	-12.0048
▁adolescen	-12.0048
▁ammunition	-12.0048
▁amusement	-12.0048
▁architect	-12.0048
▁aristocrat	-12.0048
▁assistance	-12.0048
▁audacious	-12.0048
▁babysitter	-12.0048
▁beggars	-12.0048
▁bewildered	-12.0048
▁boulders	-12.0048
▁bullshit	-12.0048
▁bungling	-12.0048
▁caution	-12.0048
▁celebrate	-12.0048
▁challenging	-12.0048
▁chronological	-12.0048
▁clutch	-12.0048
▁conceivable	-12.0048
▁concrete	-12.0048
▁creepiness	-12.0048
▁daft	-12.0048
▁decapitate	-12.0048
▁decapitation	-12.0048
▁deplorable	-12.0048
▁despair	-12.0048
▁dimwit	-12.0048
▁dishonest	-12.0048
▁distribution	-12.0048
▁documentaries	-12.0048
▁emergency	-12.0048
▁empathize	-12.0048
▁equivalent	-12.0048
▁evacuate	-12.0048
▁extravaganza	-12.0048
▁fascinate	-12.0048
▁fascination	-12.0048
▁flimsy	-12.0048
▁fundamental	-12.0048
▁graduate	-12.0048
▁haphazard	-12.0048
▁hilarity	-12.0048
▁homicide	-12.0048
▁horrified	-12.0048
▁housekeeper	-12.0048
▁hybrid	-12.0048
▁implants	-12.0048
▁impregnate	-12.0048
▁inaccuracy	-12.0048
▁inadvert	-12.0048
▁infantile	-12.0048
▁integrity	-12.0048
▁jackass	-12.0048
▁laptop	-12.0048
▁lavish	-12.0048
▁loathsome	-12.0048
▁lunatic	-12.0048
▁mannequin	-12.0048
▁marginal	-12.0048
▁masquerad	-12.0048
▁masturbat	-12.0048
▁mausoleum	-12.0048
▁monitor	-12.0048
▁murky	-12.0048
▁narrates	-12.0048
▁narrow	-12.0048
▁nervous	-12.0048
▁nutshell	-12.0048
▁ominous	-12.0048
▁omitted	-12.0048
▁oppressi	-12.0048
▁organisation	-12.0048
▁peasant	-12.0048
▁photocopy	-12.0048
▁ponderous	-12.0048
▁preposterous	-12.0048
▁prolific	-12.0048
▁psychology	-12.0048
▁rambling	-12.0048
▁relevance	-12.0048
▁repetitio	-12.0048
▁repulsive	-12.0048
▁resource	-12.0048
▁sandwich	-12.0048
▁schedule	-12.0048
▁shovel	-12.0048
▁skateboard	-12.0048
▁sloppy	-12.0048
▁smarmy	-12.0048
▁stooge	-12.0048
▁supplie	-12.0048
▁surpass	-12.0048
▁surrender	-12.0048
▁synthesi	-12.0048
▁syphilis	-12.0048
▁temporarily	-12.0048
▁tentacle	-12.0048
▁tribulation	-12.0048
▁unconsciousness	-12.0048
▁unintelligible	-12.0048
▁unleash	-12.0048
▁unsettling	-12.0048
▁virtue	-12.0048
▁vixen	-12.0048
GAME	-12.0048
▁'70	-12.0048
▁August	-12.0048
▁Britney	-12.0048
▁CHAR	-12.0048
▁CLEAR	-12.0048
▁Caribe	-12.0048
▁Columbus	-12.0048
▁Commun	-12.0048
▁Follow	-12.0048
▁Hilary	-12.0048
▁Keith	-12.0048
▁Nessie	-12.0048
▁POV	-12.0048
▁Rourke	-12.0048
▁Voight	-12.0048
▁accuracy	-12.0048
▁atrocity	-12.0048
▁bimbo	-12.0048
▁competitor	-12.0048
▁constructed	-12.0048
▁darling	-12.0048
▁deteriorat	-12.0048
▁download	-12.0048
▁eccentric	-12.0048
▁fluid	-12.0048
▁graffit	-12.0048
▁institution	-12.0048
▁insurance	-12.0048
▁interrogat	-12.0048
▁millionaire	-12.0048
▁pagan	-12.0048
▁penalty	-12.0048
▁poetry	-12.0048
▁preserve	-12.0048
▁purport	-12.0048
▁radical	-12.0048
▁rhyme	-12.0048
▁squint	-12.0048
Prisoner	-12.0048
articulate	-12.0048
▁BOOM	-12.0048
▁CERN	-12.0048
▁Calvin	-12.0048
▁Camera	-12.0048
▁Claud	-12.0048
▁Cortese	-12.0048
▁Forlani	-12.0048
▁Francisco	-12.0048
▁Hatfield	-12.0048
▁Louisiana	-12.0048
▁Nadia	-12.0048
▁Notebook	-12.0048
▁Rodriguez	-12.0048
▁SEX	-12.0048
▁Toulon	-12.0048
▁Ugh	-12.0048
▁cigarettes	-12.0048
▁henchmen	-12.0048
▁inadequate	-12.0048
▁leather	-12.0048
▁lumpy	-12.0048
▁pattern	-12.0048
▁polite	-12.0048
▁pulse	-12.0048
▁pupil	-12.0048
▁sleepwalk	-12.0048
▁wreak	-12.0048
90210	-12.0048
EEP	-12.0048
arricade	-12.0048
▁Byrne	-12.0048
▁approv	-12.0048
▁envy	-12.0048
▁implement	-12.0048
▁seductive	-12.0048
▁thumb	-12.0048
▁warehouse	-12.0048
▁whale	-12.0048
Frankenstein	-12.0048
VOI	-12.0048
▁Aussie	-12.0048
▁Rachel	-12.0048
▁WOW	-12.0048
▁astounding	-12.0048
▁conceit	-12.0048
▁critter	-12.0048
▁dross	-12.0048
▁efficien	-12.0048
▁pioneer	-12.0048
▁raptors	-12.0048
▁throne	-12.0048
▁warfare	-12.0048
Violence	-12.0048
trepid	-12.0048
ñ	-12.0048
▁Walsh	-12.0048
▁dentures	-12.0048
▁refund	-12.0048
▁replies	-12.0048
▁stabbed	-12.0048
▁wisdom	-12.0048
-80	-12.0048
Screen	-12.0048
▁Monday	-12.0048
▁Waye	-12.0048
▁cheque	-12.0048
▁orchestra	-12.0048
▁weaknesses	-12.0048
▁Impact	-12.0048
▁captions	-12.0048
▁theoretical	-12.0048
Genius	-12.0048
coherence	-12.0048
▁Conrad	-12.0048
▁Hauer	-12.0048
▁kitsch	-12.0048
▁Hurst	-12.0048
▁Passion	-12.0048
▁applie	-12.0048
▁deleted	-12.0048
▁justifiabl	-12.0048
▁motif	-12.0048
▁parrot	-12.0048
▁genital	-12.0048
assandra	-12.0048
▁recur	-12.0048
▁Cross	-12.0048
▁Renee	-12.0048
▁SEE	-12.0048
▁bonus	-12.0048
▁manhood	-12.0048
▁sincerity	-12.0048
▁Castle	-12.0048
▁Potter	-12.0048
▁Shepard	-12.0048
▁appeti	-12.0048
▁flush	-12.0048
▁midget	-12.0048
▁radar	-12.0048
▁unstable	-12.0048
▁Tweed	-12.0048
▁Valentine	-12.0048
HEAD	-12.0048
▁Kashmir	-12.0048
▁banter	-12.0048
▁Katie	-12.0048
▁Quinn	-12.0048
▁whisper	-12.0048
▁instructor	-12.0048
thodo	-12.0048
▁satiriz	-12.0048
▁eleven	-12.0048
▁Besser	-12.0048
▁Ugly	-12.0048
Shutter	-12.0048
▁Hawaii	-12.0048
▁Vidal	-12.0048
▁relieved	-12.0048
▁EVERYTHING	-12.0048
▁capacit	-12.0048
▁Center	-12.0048
▁Reiner	-12.0048
▁foremost	-12.0048
▁immor	-12.0048
▁knee	-12.0048
▁frightened	-12.0048
NAKE	-12.0048
▁apologize	-12.0048
Compton	-12.0048
▁newcomer	-12.0048
▁civilization	-12.0048
▁Painful	-12.0048
fluent	-12.0048
▁1-3	-12.0048
▁Xmas	-12.0048
▁bloodsuck	-12.0048
massacre	-12.0048
▁Sense	-12.0048
Savage	-12.0048
▁Kingsley	-12.0048
QUI	-12.0048
▁cotton	-12.0048
▁Spark	-12.0048
▁Therefore	-12.0048
▁crucifixion	-12.0048
▁gull	-12.0048
▁Point	-12.0048
▁glee	-12.0048
▁Smithee	-12.0048
▁Glass	-12.0049
▁orient	-12.0049
▁prompt	-12.0049
▁advers	-12.0049
▁amoral	-12.0049
rgant	-12.0049
▁Shining	-12.0049
▁animators	-12.0049
▁catchphrase	-12.0049
▁Ivory	-12.0049
▁Division	-12.0049
▁confine	-12.0049
▁entity	-12.0049
▁southern	-12.0049
galaxy	-12.0049
▁dismemberment	-12.0049
▁Command	-12.0049
▁steel	-12.0049
▁dopey	-12.0049
▁gear	-12.0049
▁Commission	-12.0049
▁Eastern	-12.0049
▁Sica	-12.0049
▁miniature	-12.0049
▁peons	-12.0049
▁Tension	-12.0049
handedly	-12.0049
▁savvy	-12.0049
▁slurs	-12.0049
▁expedit	-12.0049
▁scalp	-12.0049
▁0/10	-12.0049
▁Luckily	-12.0049
▁vacu	-12.0049
▁gripping	-12.0049
▁frost	-12.0049
▁Eastwood	-12.0049
holic	-12.0049
▁Airport	-12.0049
▁Samuel	-12.0049
▁Marcia	-12.0049
▁wolf	-12.0049
▁Midler	-12.0049
▁arrow	-12.0049
▁rogue	-12.0049
▁Fritz	-12.0049
▁Turkey	-12.0049
Files	-12.0049
Oddly	-12.0049
▁Dickens	-12.0049
▁Cliff	-12.0049
▁east	-12.0049
▁mimic	-12.0049
▁boast	-12.0049
▁amused	-12.0049
▁Exodus	-12.0049
Ordinar	-12.0049
▁rode	-12.0049
Euro	-12.0049
▁android	-12.0049
▁lynch	-12.0049
▁strain	-12.0049
▁emphasize	-12.0049
▁Stick	-12.0049
▁collage	-12.0049
▁Meyer	-12.0049
▁Florence	-12.005
▁bulk	-12.005
▁unseen	-12.005
carriage	-12.005
▁ambition	-12.005
▁tourist	-12.005
▁Giov	-12.005
Daffy	-12.005
▁Hamill	-12.005
▁GOOD	-12.005
▁strung	-12.005
▁composition	-12.005
▁distortion	-12.005
▁YES	-12.005
▁revolutionary	-12.005
▁Stacy	-12.005
▁divine	-12.005
▁refine	-12.005
▁electrician	-12.005
▁Mask	-12.005
▁Tower	-12.005
▁sunset	-12.005
▁Stella	-12.005
▁Wonderful	-12.005
▁Bird	-12.005
▁admirably	-12.005
▁$6	-12.005
scope	-12.005
▁Arrow	-12.005
▁pump	-12.005
Regard	-12.005
▁assert	-12.005
▁proclaim	-12.005
▁Piper	-12.005
▁detract	-12.005
▁chess	-12.005
▁knight	-12.005
streak	-12.0051
▁superhero	-12.0051
pocalypse	-12.0051
▁Awards	-12.0051
▁$8	-12.0051
▁gender	-12.0051
▁Quickie	-12.0051
▁glory	-12.0051
▁Lifetime	-12.0051
▁exploration	-12.0051
▁ethic	-12.0051
bject	-12.0051
▁misplace	-12.0051
▁deranged	-12.0051
▁sickened	-12.0051
▁techno	-12.0051
▁Morland	-12.0051
commun	-12.0051
▁victoria	-12.0051
▁expire	-12.0051
saloon	-12.0051
▁blunt	-12.0051
unshine	-12.0051
▁salad	-12.0051
▁mentor	-12.0051
▁perky	-12.0051
▁utilit	-12.0052
▁extract	-12.0052
▁breed	-12.0052
▁parole	-12.0052
▁Fanny	-12.0052
▁nuance	-12.0052
▁sugar	-12.0052
▁rebellio	-12.0052
▁Nelly	-12.0052
▁Spring	-12.0052
▁Diaz	-12.0052
▁distinction	-12.0052
▁Jordanian	-12.0052
▁Fairies	-12.0052
▁cough	-12.0052
▁:-)	-12.0052
▁handgun	-12.0052
▁sentimentality	-12.0052
▁Gallo	-12.0052
gnes	-12.0052
▁impart	-12.0053
▁ditch	-12.0053
▁predictably	-12.0053
▁haircut	-12.0053
▁Melani	-12.0053
▁intact	-12.0053
▁chock	-12.0053
▁twitch	-12.0053
▁differentiate	-12.0053
▁Chop	-12.0053
▁conform	-12.0053
▁Huntley	-12.0053
▁fox	-12.0053
▁Heston	-12.0053
ensible	-12.0054
▁Quick	-12.0054
▁Martian	-12.0054
▁Stack	-12.0054
▁Wiley	-12.0054
▁continuous	-12.0054
matically	-12.0054
▁reptiles	-12.0054
▁transformation	-12.0054
▁Tough	-12.0054
▁Funny	-12.0054
Zoe	-12.0055
▁Maxim	-12.0055
▁Youtube	-12.0055
▁anticipation	-12.0055
▁stunk	-12.0055
futur	-12.0055
▁Perry	-12.0055
Améli	-12.0055
enchant	-12.0055
▁unfl	-12.0055
▁comparable	-12.0055
▁Vienn	-12.0055
▁Zeus	-12.0055
▁Patty	-12.0055
▁Haack	-12.0055
▁Lacy	-12.0056
▁sunny	-12.0056
AAH	-12.0056
▁improvement	-12.0056
▁Lucian	-12.0056
hima	-12.0056
▁Flat	-12.0056
▁Somehow	-12.0056
▁Harley	-12.0056
▁bloke	-12.0056
▁cease	-12.0056
▁Rhon	-12.0056
▁HAL	-12.0056
▁Moreland	-12.0056
▁export	-12.0056
▁crop	-12.0057
▁exposit	-12.0057
▁expand	-12.0057
▁foist	-12.0057
scrub	-12.0057
▁roam	-12.0057
▁arrangement	-12.0057
morous	-12.0057
▁safety	-12.0057
▁pursuit	-12.0058
▁restroom	-12.0058
▁artwork	-12.0058
▁Marco	-12.0058
▁rewritten	-12.0058
▁Torch	-12.0058
▁excel	-12.0058
▁Money	-12.0058
▁Robinson	-12.0058
▁Depp	-12.0058
▁Jeanne	-12.0058
▁Dirt	-12.0058
▁Danson	-12.0059
▁2003	-12.0059
▁exec	-12.0059
▁Rox	-12.0059
▁highschool	-12.006
▁Board	-12.006
▁Cash	-12.006
▁Moreno	-12.006
▁Nurs	-12.0061
▁Thus	-12.0061
▁pink	-12.0062
▁vary	-12.0062
▁Hendr	-12.0062
▁Balk	-12.0062
▁Jonas	-12.0062
▁Serge	-12.0062
▁unclear	-12.0063
▁coward	-12.0063
▁Kress	-12.0063
▁COP	-12.0063
▁speechless	-12.0063
▁beef	-12.0063
herent	-12.0064
▁saddle	-12.0065
▁cried	-12.0065
▁scarier	-12.0065
bbie	-12.0065
▁clock	-12.0066
mran	-12.0067
▁noticing	-12.0067
▁fright	-12.0067
fusion	-12.0067
▁fence	-12.0067
Valentin	-12.0067
▁Shir	-12.0067
▁protection	-12.0068
▁lean	-12.0069
▁composer	-12.007
▁duh	-12.007
▁abduction	-12.0071
▁claw	-12.0072
▁300	-12.0072
▁Huh	-12.0072
▁Domin	-12.0072
hief	-12.0072
▁lash	-12.0073
warf	-12.0073
▁discerni	-12.0073
▁limo	-12.0073
▁max	-12.0075
▁endorse	-12.0079
astard	-12.0079
▁Keene	-12.0079
Caba	-12.008
▁eeri	-12.008
▁yo	-12.0081
ggers	-12.0083
▁disclos	-12.0083
▁Hack	-12.0084
▁undef	-12.0088
▁agreement	-12.0098
cular	-12.0101
eez	-12.0104
esert	-12.0114
▁cite	-12.0114
▁matt	-12.0116
▁Supp	-12.0119
▁Horri	-12.0124
▁leak	-12.0125
worn	-12.0126
▁dishe	-12.0129
istrict	-12.0137
anean	-12.015
▁acco	-12.0159
▁snipp	-12.016
▁peaceful	-12.0163
▁dodg	-12.0177
▁Floo	-12.0177
conventional	-12.0178
ecently	-12.0183
▁ghoul	-12.0195
▁capabilit	-12.0201
▁greas	-12.0204
▁Milk	-12.0212
uthenticity	-12.0237
Lesl	-12.0241
Loose	-12.0261
▁elde	-12.0265
1931	-12.0288
▁scatter	-12.0296
▁wipe	-12.0324
ATED	-12.0334
▁degenerate	-12.0346
presidential	-12.0347
▁code	-12.035
NOW	-12.0361
▁Jad	-12.0376
▁Erik	-12.0413
▁remov	-12.0415
Luc	-12.0446
2002	-12.0476
paced	-12.0488
▁supervis	-12.0537
▁cab	-12.054
▁blurr	-12.0541
▁clash	-12.06
▁Nic	-12.0601
Tiny	-12.0603
lbert	-12.0611
▁hypnoti	-12.0641
bike	-12.0659
actica	-12.067
▁juic	-12.0675
igger	-12.0758
▁unsur	-12.0778
gious	-12.0818
Alexand	-12.0822
Carmen	-12.0896
▁Medi	-12.0972
Parent	-12.0973
▁glu	-12.1004
Mika	-12.104
Alright	-12.1087
inding	-12.1103
▁plumb	-12.1159
▁brut	-12.1213
hanging	-12.1227
UNG	-12.1245
slav	-12.1341
artistry	-12.1345
2000)	-12.139
Rex	-12.1409
ooja	-12.1411
▁turb	-12.1414
elevator	-12.1416
▁digg	-12.1465
Casting	-12.1569
OOD	-12.158
▁Combin	-12.1591
ODO	-12.16
▁racis	-12.1634
fair	-12.169
sancti	-12.1719
ADE	-12.1746
apolog	-12.1869
▁resembl	-12.1939
Carly	-12.2065
▁Abi	-12.2159
▁Darb	-12.2191
▁Kari	-12.221
▁reci	-12.2451
umpkin	-12.2473
▁prais	-12.2628
Pod	-12.267
vision	-12.2678
boiler	-12.2716
LIN	-12.2725
dudes	-12.2781
▁rou	-12.2788
▁Sli	-12.2788
▁Lak	-12.284
Frankly	-12.2958
▁tast	-12.3004
uzzy	-12.3048
ounty	-12.3064
rainy	-12.313
intentionally	-12.3165
▁pacif	-12.3173
dvice	-12.3178
appropriate	-12.3211
ficient	-12.3222
▁trib	-12.3261
▁homo	-12.3266
▁sadde	-12.3272
eaky	-12.3289
▁choos	-12.3293
▁imitat	-12.3296
worth	-12.33
=	-12.3312
related	-12.3317
Twi	-12.3319
EVER	-12.3319
phrase	-12.3319
Hollow	-12.3319
dropping	-12.3319
present	-12.332
Alice	-12.332
specific	-12.332
Austin	-12.332
Code	-12.332
Club	-12.332
Road	-12.332
split	-12.332
scarecrow	-12.332
spoiler	-12.332
Nazi	-12.3321
Dear	-12.3321
Death	-12.3321
Wait	-12.3321
Almost	-12.3321
patient	-12.3321
laughter	-12.3321
wannabe	-12.3321
Chuck	-12.3321
asochist	-12.3321
Lloyd	-12.3321
exploitation	-12.3322
spoke	-12.3322
Awful	-12.3322
Plot	-12.3322
Story	-12.3322
intellectual	-12.3322
Camp	-12.3322
Karen	-12.3322
Halloween	-12.3322
genius	-12.3322
Poor	-12.3322
Charlie	-12.3323
length	-12.3323
design	-12.3323
Though	-12.3323
Disney	-12.3323
street	-12.3323
fantasy	-12.3323
frame	-12.3323
animal	-12.3323
pretentious	-12.3323
masterpiece	-12.3323
Film	-12.3323
template	-12.3323
hilarious	-12.3323
perfect	-12.3323
Ryan	-12.3323
Italian	-12.3323
husband	-12.3323
bomb	-12.3323
screenwriter	-12.3323
picture	-12.3323
female	-12.3323
invent	-12.3323
direction	-12.3324
quality	-12.3324
Steven	-12.3324
women	-12.3324
writing	-12.3324
daughter	-12.3324
release	-12.3324
third	-12.3324
stupid	-12.3324
support	-12.3324
woman	-12.3324
first	-12.3324
music	-12.3324
better	-12.3324
safe	-12.3326
felt	-12.3326
three	-12.3326
▁animat	-12.3334
crappy	-12.3335
▁arrest	-12.3335
Christin	-12.3336
flicted	-12.3344
▁essential	-12.3346
▁applau	-12.3349
variabl	-12.3349
Possibl	-12.3357
▁Korea	-12.3357
▁possibilit	-12.3363
blood	-12.3365
▁Foreign	-12.3367
▁lacklust	-12.3368
sacrific	-12.3368
▁nostalgi	-12.3368
▁cohesi	-12.3369
▁anticipat	-12.3372
sibly	-12.3373
▁thematic	-12.3374
▁nausea	-12.3376
semblance	-12.3378
UCK	-12.3378
▁avail	-12.3379
deemed	-12.3379
eautiful	-12.3379
rivate	-12.3379
▁convers	-12.338
scribe	-12.338
upposedly	-12.338
ategory	-12.338
efense	-12.338
ocumentary	-12.338
▁detect	-12.338
▁Advent	-12.338
pisode	-12.338
xtreme	-12.338
ketch	-12.3381
elicit	-12.3381
▁(196	-12.3381
▁sensation	-12.3381
▁Cleaner	-12.3381
ordinar	-12.3381
tabloid	-12.3381
▁KIND	-12.3381
▁Koyaanisq	-12.3381
▁hodge	-12.3381
▁perennially	-12.3381
▁redempti	-12.3381
▁scantily	-12.3381
▁speculati	-12.3381
Animator	-12.3381
Bizarre	-12.3381
Chapelle	-12.3381
Coronado	-12.3381
Critters	-12.3381
Elephant	-12.3381
Flashback	-12.3381
Folk	-12.3381
Governor	-12.3381
Hatchet	-12.3381
Joaqui	-12.3381
Kristofferson	-12.3381
Miracle	-12.3381
Perfect	-12.3381
Platoon	-12.3381
Traffic	-12.3381
Unspeak	-12.3381
biographies	-12.3381
climatic	-12.3381
confidence	-12.3381
ertificate	-12.3381
flamethrower	-12.3381
imultaneously	-12.3381
malgam	-12.3381
minators	-12.3381
mplications	-12.3381
oblivio	-12.3381
ological	-12.3381
ophile	-12.3381
podge	-12.3381
repugnant	-12.3381
reservation	-12.3381
ristocracy	-12.3381
surveillance	-12.3381
}	-12.3381
	-12.3381
ü	-12.3381
▁/>2/5	-12.3381
▁1983	-12.3381
▁1989	-12.3381
▁1997	-12.3381
▁24/7	-12.3381
▁7/11	-12.3381
▁ALERT	-12.3381
▁AROUND	-12.3381
▁AWFUL	-12.3381
▁Aurora	-12.3381
▁Auteuil	-12.3381
▁Bachchan	-12.3381
▁Balderson	-12.3381
▁Beethoven	-12.3381
▁Bucharest	-12.3381
▁Buscemi	-12.3381
▁Ceremony	-12.3381
▁Chaplin	-12.3381
▁Collection	-12.3381
▁Convention	-12.3381
▁Coscarelli	-12.3381
▁Criminal	-12.3381
▁Deneuve	-12.3381
▁Dennehy	-12.3381
▁Development	-12.3381
▁EARTH	-12.3381
▁ESPN	-12.3381
▁Eckhart	-12.3381
▁Edinburgh	-12.3381
▁Eleniak	-12.3381
▁Entertainer	-12.3381
▁Examiner	-12.3381
▁Examples	-12.3381
▁Excellen	-12.3381
▁FRONT	-12.3381
▁FUNNY	-12.3381
▁Fingerling	-12.3381
▁Flavia	-12.3381
▁François	-12.3381
▁GEEK	-12.3381
▁GREEN	-12.3381
▁Gedran	-12.3381
▁Gittai	-12.3381
▁Goldthwait	-12.3381
▁Greengrass	-12.3381
▁Grenier	-12.3381
▁Grisham	-12.3381
▁HORRIBLE	-12.3381
▁Haiduk	-12.3381
▁Hasselhof	-12.3381
▁Hopkins	-12.3381
▁Isabella	-12.3381
▁Islamic	-12.3381
▁Jaclyn	-12.3381
▁January	-12.3381
▁Kalidor	-12.3381
▁Kansas	-12.3381
▁Karpathy	-12.3381
▁Katrina	-12.3381
▁LAME	-12.3381
▁Leconte	-12.3381
▁Lithgow	-12.3381
▁Lolita	-12.3381
▁Lugosi	-12.3381
▁Macbeth	-12.3381
▁Magdalene	-12.3381
▁Malkovich	-12.3381
▁McGinley	-12.3381
▁McGow	-12.3381
▁McGuff	-12.3381
▁McMurt	-12.3381
▁Melbourne	-12.3381
▁Miyazaki	-12.3381
▁Mockingbird	-12.3381
▁Morocc	-12.3381
▁Moscow	-12.3381
▁Muslim	-12.3381
▁Mwanza	-12.3381
▁Naqoyqatsi	-12.3381
▁Nebraska	-12.3381
▁Nielsen	-12.3381
▁Occasionally	-12.3381
▁Patriot	-12.3381
▁Potemkin	-12.3381
▁Predictably	-12.3381
▁Producer	-12.3381
▁Production	-12.3381
▁Project	-12.3381
▁Pumpkinhead	-12.3381
▁Queirós	-12.3381
▁RINGU	-12.3381
▁ROCK	-12.3381
▁Railsback	-12.3381
▁Rothbart	-12.3381
▁Ryoko	-12.3381
▁SCREEN	-12.3381
▁SEANCE	-12.3381
▁SOLDIERS	-12.3381
▁Sabbath	-12.3381
▁Sarandon	-12.3381
▁Schenke	-12.3381
▁Schijf	-12.3381
▁Scrimm	-12.3381
▁Seattle	-12.3381
▁Senator	-12.3381
▁Seymour	-12.3381
▁Singapore	-12.3381
▁Slugs	-12.3381
▁THINK	-12.3381
▁Thersites	-12.3381
▁Tibbs	-12.3381
▁Translation	-12.3381
▁UNDER	-12.3381
▁Vancouver	-12.3381
▁Venezuela	-12.3381
▁Verghese	-12.3381
▁Verhoeven	-12.3381
▁Waltz	-12.3381
▁Wilki	-12.3381
▁XXX	-12.3381
▁Yankee	-12.3381
▁ZOMBIE	-12.3381
▁accelerat	-12.3381
▁acquaintances	-12.3381
▁activity	-12.3381
▁aficionado	-12.3381
▁amputation	-12.3381
▁appalled	-12.3381
▁aspirations	-12.3381
▁attorney	-12.3381
▁brothel	-12.3381
▁calculations	-12.3381
▁calibre	-12.3381
▁captioning	-12.3381
▁catalogue	-12.3381
▁catastroph	-12.3381
▁categories	-12.3381
▁cemetery	-12.3381
▁chaotic	-12.3381
▁chauvinist	-12.3381
▁chocolate	-12.3381
▁clunker	-12.3381
▁cocaine	-12.3381
▁cockroach	-12.3381
▁complement	-12.3381
▁condescending	-12.3381
▁congratulat	-12.3381
▁connoisseur	-12.3381
▁conspirator	-12.3381
▁continent	-12.3381
▁corporation	-12.3381
▁creepier	-12.3381
▁critique	-12.3381
▁cryogenics	-12.3381
▁culprit	-12.3381
▁cynicism	-12.3381
▁dazzl	-12.3381
▁delinquents	-12.3381
▁delusional	-12.3381
▁demographic	-12.3381
▁denominator	-12.3381
▁denouement	-12.3381
▁diabolical	-12.3381
▁diamond	-12.3381
▁dilemma	-12.3381
▁disciple	-12.3381
▁discrimination	-12.3381
▁dizzy	-12.3381
▁domestic	-12.3381
▁dungeon	-12.3381
▁emperor	-12.3381
▁enforcement	-12.3381
▁engender	-12.3381
▁epidemic	-12.3381
▁epitom	-12.3381
▁expelled	-12.3381
▁exploding	-12.3381
▁fabric	-12.3381
▁fantasies	-12.3381
▁fugitive	-12.3381
▁furniture	-12.3381
▁gambling	-12.3381
▁grenade	-12.3381
▁heartstrings	-12.3381
▁helmet	-12.3381
▁homesteaders	-12.3381
▁hunchback	-12.3381
▁hurricane	-12.3381
▁indifference	-12.3381
▁infomercial	-12.3381
▁ingenious	-12.3381
▁innuendo	-12.3381
▁insecure	-12.3381
▁insufferable	-12.3381
▁intercourse	-12.3381
▁intermittent	-12.3381
▁intricate	-12.3381
▁intrude	-12.3381
▁irresponsible	-12.3381
▁irritation	-12.3381
▁jewish	-12.3381
▁landlord	-12.3381
▁luggage	-12.3381
▁machismo	-12.3381
▁manipulative	-12.3381
▁masculinity	-12.3381
▁maximum	-12.3381
▁melancholy	-12.3381
▁mercenary	-12.3381
▁metaphor	-12.3381
▁mockumentary	-12.3381
▁moustache	-12.3381
▁multitude	-12.3381
▁nauseum	-12.3381
▁nephew	-12.3381
▁occurrence	-12.3381
▁octopus	-12.3381
▁oxygen	-12.3381
▁paragraph	-12.3381
▁piranha	-12.3381
▁platinum	-12.3381
▁platitud	-12.3381
▁policy	-12.3381
▁politicians	-12.3381
▁precaution	-12.3381
▁primitive	-12.3381
▁prosecut	-12.3381
▁prosthetics	-12.3381
▁provoke	-12.3381
▁psyche	-12.3381
▁publishe	-12.3381
▁pudding	-12.3381
▁puerile	-12.3381
▁puzzling	-12.3381
▁rearranged	-12.3381
▁rehabilitated	-12.3381
▁relevant	-12.3381
▁reluctant	-12.3381
▁rendition	-12.3381
▁retelling	-12.3381
▁revisionist	-12.3381
▁rhythm	-12.3381
▁sabotage	-12.3381
▁salvage	-12.3381
▁satirical	-12.3381
▁satisfaction	-12.3381
▁sculpture	-12.3381
▁shriek	-12.3381
▁shuffling	-12.3381
▁silhouette	-12.3381
▁silicon	-12.3381
▁silliness	-12.3381
▁soooooo	-12.3381
▁spectacle	-12.3381
▁spectator	-12.3381
▁speleologist	-12.3381
▁statuette	-12.3381
▁suffice	-12.3381
▁sweetheart	-12.3381
▁syndicate	-12.3381
▁synonymous	-12.3381
▁technician	-12.3381
▁telegraph	-12.3381
▁telekinetic	-12.3381
▁throttle	-12.3381
▁transplant	-12.3381
▁trappings	-12.3381
▁trollop	-12.3381
▁udders	-12.3381
▁uncertain	-12.3381
▁uncontrollabl	-12.3381
▁underestimate	-12.3381
▁underpopulated	-12.3381
▁understatement	-12.3381
▁uneasy	-12.3381
▁unexciting	-12.3381
▁unlucky	-12.3381
▁unravel	-12.3381
▁volunteer	-12.3381
▁voodoo	-12.3381
▁vulnerab	-12.3381
▁watermelon	-12.3381
▁yield	-12.3381
Emraan	-12.3381
Gyllenhaal	-12.3381
OOOOO	-12.3381
Written	-12.3381
activist	-12.3381
hahaha	-12.3381
▁(1996)	-12.3381
▁(2004)	-12.3381
▁COOL	-12.3381
▁Disappear	-12.3381
▁Giallo	-12.3381
▁Kinski	-12.3381
▁OVER	-12.3381
▁PARTY	-12.3381
▁Rapaport	-12.3381
▁SCRAM	-12.3381
▁Salmon	-12.3381
▁Wharton	-12.3381
▁[1946]	-12.3381
▁advisor	-12.3381
▁alphabet	-12.3381
▁ancestor	-12.3381
▁conservat	-12.3381
▁dispatch	-12.3381
▁dispens	-12.3381
▁embryo	-12.3381
▁flourish	-12.3381
▁gadget	-12.3381
▁gesture	-12.3381
▁infuriat	-12.3381
▁insects	-12.3381
▁juggl	-12.3381
▁jumble	-12.3381
▁sausage	-12.3381
▁senior	-12.3381
▁sensual	-12.3381
▁spontaneous	-12.3381
▁verdict	-12.3381
***************	-12.3381
ABLE	-12.3381
crucifix	-12.3381
▁ACTUAL	-12.3381
▁Addison	-12.3381
▁Archive	-12.3381
▁Assante	-12.3381
▁Bebble	-12.3381
▁Bloodstone	-12.3381
▁Craven	-12.3381
▁Darnell	-12.3381
▁Duncan	-12.3381
▁Fragata	-12.3381
▁Kronk	-12.3381
▁Letterman	-12.3381
▁Reagan	-12.3381
▁Scamp	-12.3381
▁Straight	-12.3381
▁Teenage	-12.3381
▁Temple	-12.3381
▁Thurman	-12.3381
▁Tokyo	-12.3381
▁Trumbo	-12.3381
▁WANT	-12.3381
▁ambitious	-12.3381
▁applica	-12.3381
▁apprais	-12.3381
▁bloodletting	-12.3381
▁burden	-12.3381
▁cocktail	-12.3381
▁disrespect	-12.3381
▁extraneous	-12.3381
▁frigg	-12.3381
▁guru	-12.3381
▁hesitation	-12.3381
▁hulking	-12.3381
▁impaired	-12.3381
▁incomparabl	-12.3381
▁laboured	-12.3381
▁mortified	-12.3381
▁obtained	-12.3381
▁peppy	-12.3381
▁prud	-12.3381
▁savior	-12.3381
▁scissors	-12.3381
▁sensibilit	-12.3381
▁slayer	-12.3381
▁sweeping	-12.3381
▁testament	-12.3381
▁undergarment	-12.3381
▁vapid	-12.3381
▁videotape	-12.3381
▁Avenger	-12.3381
▁BAND	-12.3381
▁Brigg	-12.3381
▁Cheadle	-12.3381
▁Credit	-12.3381
▁Daughter	-12.3381
▁Sykes	-12.3381
▁constipat	-12.3381
▁cronies	-12.3381
▁crooked	-12.3381
▁deprav	-12.3381
▁dignity	-12.3381
▁dildo	-12.3381
▁embark	-12.3381
▁harbor	-12.3381
▁indecipherable	-12.3381
▁justification	-12.3381
▁mastermind	-12.3381
▁phase	-12.3381
▁prolonged	-12.3381
▁puking	-12.3381
▁squeal	-12.3381
▁violin	-12.3381
▁williams	-12.3381
RAIN	-12.3381
boggl	-12.3381
mercifully	-12.3381
mitigat	-12.3381
tournament	-12.3381
▁Amazing	-12.3381
▁Bovon	-12.3381
▁Brief	-12.3381
▁MAG	-12.3381
▁PPV	-12.3381
▁Quo	-12.3381
▁Raido	-12.3381
▁Regardless	-12.3381
▁SAND	-12.3381
▁Sheldon	-12.3381
▁Trivett	-12.3381
▁brainwash	-12.3381
▁candidate	-12.3381
▁cretin	-12.3381
▁glutton	-12.3381
▁overwrought	-12.3381
▁rehash	-12.3381
▁sparse	-12.3381
meister	-12.3381
onymous	-12.3381
▁Blake	-12.3381
▁Cooper	-12.3381
▁Dustin	-12.3381
▁Geek	-12.3381
▁Hitler	-12.3381
▁TMN	-12.3381
▁bleeding	-12.3381
▁phant	-12.3381
▁vault	-12.3381
PLANE	-12.3381
▁Bruck	-12.3381
▁Claus	-12.3381
▁treach	-12.3381
▁uninvolving	-12.3381
arathon	-12.3381
mischief	-12.3381
▁CEO	-12.3381
▁patrons	-12.3381
Harvard	-12.3381
▁#2	-12.3381
▁Clara	-12.3381
▁Cohen	-12.3381
▁Collins	-12.3381
▁MAY	-12.3381
▁Slasher	-12.3381
▁Westwing	-12.3381
▁cheesi	-12.3381
▁closure	-12.3381
▁integrate	-12.3381
▁Orange	-12.3381
▁Xena	-12.3381
▁balloon	-12.3381
▁dictat	-12.3381
▁snowballs	-12.3381
▁swordsmen	-12.3381
▁thrive	-12.3381
Eastenders	-12.3381
▁LDS	-12.3381
▁LSD	-12.3381
▁Warrior	-12.3381
▁collaborati	-12.3381
▁costuming	-12.3381
▁hobo	-12.3381
▁tedium	-12.3381
▁Elwes	-12.3381
▁Heaven	-12.3381
▁conceal	-12.3381
▁gamble	-12.3381
▁manifest	-12.3381
▁ravag	-12.3381
bearded	-12.3382
▁Cutter	-12.3382
▁Tube	-12.3382
▁bleak	-12.3382
▁dismay	-12.3382
▁eyebrows	-12.3382
▁knit	-12.3382
pods	-12.3382
▁Secor	-12.3382
▁bicker	-12.3382
▁diaper	-12.3382
▁dysfunction	-12.3382
▁Steele	-12.3382
▁carnage	-12.3382
▁commend	-12.3382
▁spear	-12.3382
OCA	-12.3382
palabra	-12.3382
▁Andersson	-12.3382
▁Motors	-12.3382
▁gaudy	-12.3382
▁Alexander	-12.3382
▁Surprisingly	-12.3382
▁homeschooler	-12.3382
▁omni	-12.3382
▁untouch	-12.3382
▁electronic	-12.3382
▁collapse	-12.3382
ophie	-12.3382
▁Holmes	-12.3382
▁submit	-12.3382
▁Bucky	-12.3382
▁(1966)	-12.3382
▁Malone	-12.3382
▁MIN	-12.3382
▁Mediterr	-12.3382
▁Mendes	-12.3382
▁detour	-12.3382
▁worm	-12.3382
leeze	-12.3382
▁academ	-12.3382
▁barrel	-12.3382
▁mannerisms	-12.3382
▁abroad	-12.3382
▁isolated	-12.3382
▁occupy	-12.3382
▁riff	-12.3382
▁Suz	-12.3382
Camille	-12.3382
ELO	-12.3382
▁inundat	-12.3382
▁motto	-12.3382
▁reenactments	-12.3382
▁Genesis	-12.3382
▁heiress	-12.3382
▁iota	-12.3382
Clockwork	-12.3382
▁Ebert	-12.3382
▁Gator	-12.3382
▁transpir	-12.3382
▁rustle	-12.3382
▁acquit	-12.3382
▁Rosali	-12.3382
▁wrongdoer	-12.3382
▁spelt	-12.3382
HAI	-12.3382
▁organization	-12.3382
▁Doyle	-12.3382
▁injure	-12.3382
hwaa	-12.3382
▁Rhys	-12.3382
▁Gilbert	-12.3382
▁Rubinstein	-12.3382
▁protest	-12.3382
▁Merri	-12.3382
▁sperm	-12.3382
▁Grudge	-12.3382
▁carpet	-12.3382
▁circula	-12.3382
▁resident	-12.3382
reviously	-12.3382
runken	-12.3382
▁Pettet	-12.3382
▁swordsman	-12.3382
▁Jared	-12.3382
enburg	-12.3382
aboutit	-12.3382
▁derive	-12.3382
▁CIT	-12.3382
extraterrestrial	-12.3382
▁jocks	-12.3382
AID	-12.3382
▁Spot	-12.3382
▁instruction	-12.3382
▁pissing	-12.3382
▁spree	-12.3382
mongering	-12.3382
▁auction	-12.3382
▁Drugs	-12.3382
burger	-12.3382
▁skirt	-12.3382
▁slander	-12.3382
▁(1962)	-12.3382
▁aloof	-12.3382
▁McKe	-12.3382
▁therapist	-12.3382
▁Montana	-12.3382
▁expens	-12.3382
▁Early	-12.3382
▁commission	-12.3382
hounds	-12.3382
▁Haines	-12.3382
▁Olivetti	-12.3382
▁Reese	-12.3382
▁cattle	-12.3382
▁Abel	-12.3382
▁Gimmi	-12.3382
Peppard	-12.3382
▁tomorrow	-12.3382
▁division	-12.3382
Nightbreed	-12.3382
▁perception	-12.3382
▁gruel	-12.3382
▁textbook	-12.3382
Message	-12.3382
▁[196	-12.3382
▁underused	-12.3382
▁bandits	-12.3382
▁radiat	-12.3382
▁meager	-12.3383
▁1977	-12.3383
atador	-12.3383
▁Seuss	-12.3383
▁Smart	-12.3383
▁babbl	-12.3383
▁Chopper	-12.3383
SSI	-12.3383
▁Wilb	-12.3383
▁expend	-12.3383
▁secular	-12.3383
▁cutouts	-12.3383
▁enigma	-12.3383
▁ilk	-12.3383
audevill	-12.3383
▁Keys	-12.3383
▁feroci	-12.3383
▁reused	-12.3383
Sixth	-12.3383
▁titillati	-12.3383
▁splendo	-12.3383
▁laborious	-12.3383
▁resonate	-12.3383
▁hetero	-12.3383
orsaken	-12.3383
▁vines	-12.3383
▁debt	-12.3383
1/5	-12.3383
furnish	-12.3383
▁germ	-12.3383
▁Clair	-12.3383
Clonus	-12.3383
▁Hagg	-12.3383
▁alleged	-12.3383
▁unsuspe	-12.3383
▁Holden	-12.3383
▁violat	-12.3383
Useless	-12.3384
▁Sucks	-12.3384
▁abyss	-12.3384
▁definat	-12.3384
▁Pegg	-12.3384
▁Thirt	-12.3384
▁fiddl	-12.3384
▁incline	-12.3384
▁Harbor	-12.3384
▁Hubb	-12.3384
▁Forbes	-12.3384
▁Iowa	-12.3384
▁stride	-12.3384
umental	-12.3384
▁mags	-12.3384
▁Swing	-12.3384
▁Brenda	-12.3385
▁Theatre	-12.3385
rpent	-12.3385
budged	-12.3385
▁Excu	-12.3385
▁cremat	-12.3385
▁1,000	-12.3385
▁fancie	-12.3385
Knock	-12.3386
▁HAVE	-12.3386
cchio	-12.3386
▁fertil	-12.3386
Writing	-12.3387
Isaac	-12.3387
hapless	-12.3387
elope	-12.3387
regain	-12.3388
▁interfere	-12.3388
POS	-12.3388
ontrast	-12.3389
▁electi	-12.3391
pologise	-12.3391
▁Horn	-12.3393
Visual	-12.3394
ornado	-12.3394
▁FLO	-12.3394
▁analog	-12.3395
mbass	-12.3396
imdb	-12.3397
▁stagger	-12.3398
▁daze	-12.3398
ssimo	-12.3399
▁undermine	-12.3401
▁antholog	-12.3401
▁EAT	-12.3403
▁Abhi	-12.3404
INN	-12.3408
indulgence	-12.3408
demand	-12.3409
▁Smok	-12.3409
▁soci	-12.3414
▁Clare	-12.3415
Anyho	-12.3416
ertaining	-12.3418
remors	-12.3421
▁Litera	-12.3421
▁pilla	-12.3425
▁Bike	-12.3427
LOAD	-12.3428
▁Angl	-12.343
artoon	-12.3433
▁LIV	-12.3438
▁masochis	-12.3442
Curly	-12.3449
▁grizzl	-12.3453
scrape	-12.3457
▁merc	-12.3458
▁Pierr	-12.3461
Cult	-12.3469
Murdock	-12.3477
▁constr	-12.3478
esthetically	-12.3483
▁Henri	-12.3486
▁reptil	-12.3488
1956	-12.3498
▁dramatiz	-12.3529
▁colla	-12.3531
▁Brav	-12.3538
organized	-12.3538
READ	-12.355
cloak	-12.3555
1935	-12.3559
▁Gibb	-12.3561
▁contemplat	-12.3579
ccupation	-12.3613
ighlander	-12.3621
1959	-12.3623
▁heartbreak	-12.3736
Type	-12.3768
monious	-12.3791
Capri	-12.382
civilis	-12.3837
flex	-12.3894
equate	-12.3894
GIRLS	-12.3929
ncredible	-12.3977
▁dru	-12.4026
polish	-12.4051
Miner	-12.4058
uccessfully	-12.4076
▁Geral	-12.4076
believers	-12.4125
▁BRI	-12.4226
LAND	-12.4308
Brien	-12.433
Romance	-12.435
glance	-12.4381
▁Bren	-12.4535
arcel	-12.4581
rticle	-12.4733
protective	-12.4815
dependent	-12.4842
impressive	-12.5055
partment	-12.5142
ISN	-12.5262
nsistent	-12.5297
spirited	-12.5433
▁remarkabl	-12.5497
discovered	-12.5507
▁privilege	-12.5587
▁submissi	-12.5649
Twiste	-12.5899
Exit	-12.602
▁separat	-12.6118
▁smuggl	-12.633
strange	-12.6395
Counter	-12.6434
▁reenact	-12.6469
graphic	-12.662
gator	-12.6626
▁substitut	-12.6667
Characters	-12.6786
Friends	-12.6863
Scenes	-12.6967
▁Laugh	-12.6986
▁participa	-12.7052
▁hypno	-12.715
successful	-12.7197
discovery	-12.7288
uniforms	-12.7362
1998	-12.7399
Witcher	-12.742
▁GIRL	-12.7546
▁advocat	-12.7749
dissolve	-12.794
believe	-12.8049
▁Stooge	-12.8107
ncient	-12.8171
fraid	-12.8175
ttempt	-12.8179
▁univers	-12.8205
▁indulg	-12.8216
GHT	-12.825
▁perpetua	-12.8257
rizzly	-12.8266
▁disturb	-12.8275
▁experienc	-12.8276
▁bubbl	-12.8286
investigati	-12.8286
▁qui	-12.8293
ejected	-12.8303
shadow	-12.8308
▁terrify	-12.8317
Ernest	-12.8319
Mongolian	-12.8319
Nobody	-12.8319
Office	-12.8319
Scarlett	-12.8319
	-13.8328
å	-13.8387
	-13.8388
ê	-13.8389
£	-13.839
{	-13.8391
ã	-13.8392
́	-13.8393
~	-13.8394
[	-13.8395
